unsigned char model_tflite[] = {
  0x1c, 0x00, 0x00, 0x00, 0x54, 0x46, 0x4c, 0x33, 0x14, 0x00, 0x20, 0x00,
  0x1c, 0x00, 0x18, 0x00, 0x14, 0x00, 0x10, 0x00, 0x0c, 0x00, 0x00, 0x00,
  0x08, 0x00, 0x04, 0x00, 0x14, 0x00, 0x00, 0x00, 0x1c, 0x00, 0x00, 0x00,
  0x98, 0x00, 0x00, 0x00, 0xf0, 0x00, 0x00, 0x00, 0x50, 0x28, 0x00, 0x00,
  0x60, 0x28, 0x00, 0x00, 0x40, 0x35, 0x00, 0x00, 0x03, 0x00, 0x00, 0x00,
  0x01, 0x00, 0x00, 0x00, 0x10, 0x00, 0x00, 0x00, 0x00, 0x00, 0x0a, 0x00,
  0x10, 0x00, 0x0c, 0x00, 0x08, 0x00, 0x04, 0x00, 0x0a, 0x00, 0x00, 0x00,
  0x0c, 0x00, 0x00, 0x00, 0x1c, 0x00, 0x00, 0x00, 0x3c, 0x00, 0x00, 0x00,
  0x0f, 0x00, 0x00, 0x00, 0x73, 0x65, 0x72, 0x76, 0x69, 0x6e, 0x67, 0x5f,
  0x64, 0x65, 0x66, 0x61, 0x75, 0x6c, 0x74, 0x00, 0x01, 0x00, 0x00, 0x00,
  0x04, 0x00, 0x00, 0x00, 0x90, 0xff, 0xff, 0xff, 0x16, 0x00, 0x00, 0x00,
  0x04, 0x00, 0x00, 0x00, 0x08, 0x00, 0x00, 0x00, 0x6f, 0x75, 0x74, 0x70,
  0x75, 0x74, 0x5f, 0x30, 0x00, 0x00, 0x00, 0x00, 0x01, 0x00, 0x00, 0x00,
  0x04, 0x00, 0x00, 0x00, 0x7e, 0xd8, 0xff, 0xff, 0x04, 0x00, 0x00, 0x00,
  0x0f, 0x00, 0x00, 0x00, 0x6b, 0x65, 0x72, 0x61, 0x73, 0x5f, 0x74, 0x65,
  0x6e, 0x73, 0x6f, 0x72, 0x5f, 0x31, 0x30, 0x00, 0x02, 0x00, 0x00, 0x00,
  0x34, 0x00, 0x00, 0x00, 0x04, 0x00, 0x00, 0x00, 0xdc, 0xff, 0xff, 0xff,
  0x19, 0x00, 0x00, 0x00, 0x04, 0x00, 0x00, 0x00, 0x13, 0x00, 0x00, 0x00,
  0x43, 0x4f, 0x4e, 0x56, 0x45, 0x52, 0x53, 0x49, 0x4f, 0x4e, 0x5f, 0x4d,
  0x45, 0x54, 0x41, 0x44, 0x41, 0x54, 0x41, 0x00, 0x08, 0x00, 0x0c, 0x00,
  0x08, 0x00, 0x04, 0x00, 0x08, 0x00, 0x00, 0x00, 0x18, 0x00, 0x00, 0x00,
  0x04, 0x00, 0x00, 0x00, 0x13, 0x00, 0x00, 0x00, 0x6d, 0x69, 0x6e, 0x5f,
  0x72, 0x75, 0x6e, 0x74, 0x69, 0x6d, 0x65, 0x5f, 0x76, 0x65, 0x72, 0x73,
  0x69, 0x6f, 0x6e, 0x00, 0x1a, 0x00, 0x00, 0x00, 0x5c, 0x27, 0x00, 0x00,
  0x54, 0x27, 0x00, 0x00, 0x04, 0x27, 0x00, 0x00, 0xcc, 0x26, 0x00, 0x00,
  0x9c, 0x26, 0x00, 0x00, 0x7c, 0x26, 0x00, 0x00, 0x6c, 0x14, 0x00, 0x00,
  0x5c, 0x0b, 0x00, 0x00, 0xcc, 0x06, 0x00, 0x00, 0x7c, 0x04, 0x00, 0x00,
  0xec, 0x01, 0x00, 0x00, 0xb4, 0x01, 0x00, 0x00, 0x9c, 0x01, 0x00, 0x00,
  0xfc, 0x00, 0x00, 0x00, 0xdc, 0x00, 0x00, 0x00, 0xd4, 0x00, 0x00, 0x00,
  0xcc, 0x00, 0x00, 0x00, 0xc4, 0x00, 0x00, 0x00, 0xbc, 0x00, 0x00, 0x00,
  0xb4, 0x00, 0x00, 0x00, 0xac, 0x00, 0x00, 0x00, 0xa4, 0x00, 0x00, 0x00,
  0x9c, 0x00, 0x00, 0x00, 0x94, 0x00, 0x00, 0x00, 0x74, 0x00, 0x00, 0x00,
  0x04, 0x00, 0x00, 0x00, 0x62, 0xd9, 0xff, 0xff, 0x04, 0x00, 0x00, 0x00,
  0x60, 0x00, 0x00, 0x00, 0x10, 0x00, 0x00, 0x00, 0x00, 0x00, 0x00, 0x00,
  0x08, 0x00, 0x0e, 0x00, 0x08, 0x00, 0x04, 0x00, 0x08, 0x00, 0x00, 0x00,
  0x10, 0x00, 0x00, 0x00, 0x24, 0x00, 0x00, 0x00, 0x00, 0x00, 0x06, 0x00,
  0x08, 0x00, 0x04, 0x00, 0x06, 0x00, 0x00, 0x00, 0x04, 0x00, 0x00, 0x00,
  0x00, 0x00, 0x00, 0x00, 0x0c, 0x00, 0x18, 0x00, 0x14, 0x00, 0x10, 0x00,
  0x0c, 0x00, 0x04, 0x00, 0x0c, 0x00, 0x00, 0x00, 0xb3, 0xe1, 0x4d, 0x78,
  0x0d, 0x52, 0xee, 0xc1, 0x02, 0x00, 0x00, 0x00, 0x02, 0x00, 0x00, 0x00,
  0x04, 0x00, 0x00, 0x00, 0x06, 0x00, 0x00, 0x00, 0x32, 0x2e, 0x31, 0x38,
  0x2e, 0x30, 0x00, 0x00, 0xce, 0xd9, 0xff, 0xff, 0x04, 0x00, 0x00, 0x00,
  0x10, 0x00, 0x00, 0x00, 0x31, 0x2e, 0x31, 0x31, 0x2e, 0x30, 0x00, 0x00,
  0x00, 0x00, 0x00, 0x00, 0x00, 0x00, 0x00, 0x00, 0xdc, 0xcc, 0xff, 0xff,
  0xe0, 0xcc, 0xff, 0xff, 0xe4, 0xcc, 0xff, 0xff, 0xe8, 0xcc, 0xff, 0xff,
  0xec, 0xcc, 0xff, 0xff, 0xf0, 0xcc, 0xff, 0xff, 0xf4, 0xcc, 0xff, 0xff,
  0xf8, 0xcc, 0xff, 0xff, 0xfc, 0xcc, 0xff, 0xff, 0x0e, 0xda, 0xff, 0xff,
  0x04, 0x00, 0x00, 0x00, 0x10, 0x00, 0x00, 0x00, 0x19, 0x77, 0xbc, 0x3d,
  0x29, 0x9a, 0x49, 0x3d, 0x91, 0xb7, 0x53, 0x3e, 0x76, 0xe7, 0x68, 0x3d,
  0x2a, 0xda, 0xff, 0xff, 0x04, 0x00, 0x00, 0x00, 0x90, 0x00, 0x00, 0x00,
  0x03, 0x1b, 0x55, 0xbc, 0xfe, 0x8c, 0xbf, 0x3e, 0x3e, 0x11, 0x05, 0x3f,
  0xea, 0xef, 0xbf, 0x3e, 0x8e, 0xdb, 0x00, 0x3f, 0x9a, 0xd0, 0xd4, 0xbd,
  0xdc, 0x3d, 0xe6, 0x3d, 0x95, 0xc6, 0xe1, 0x3e, 0x3e, 0xbd, 0x4d, 0x3e,
  0x9b, 0x19, 0x57, 0x3d, 0x56, 0x87, 0xfe, 0xbd, 0x8b, 0x32, 0x89, 0x3e,
  0x8f, 0xfe, 0xac, 0x3e, 0x50, 0x5e, 0x0a, 0x3e, 0x58, 0xa2, 0xef, 0x3e,
  0x52, 0xf7, 0x2b, 0x3e, 0xaa, 0x32, 0xcb, 0xbd, 0x91, 0x6c, 0xb4, 0x3e,
  0x7c, 0x62, 0xa9, 0x3e, 0xe3, 0xec, 0x02, 0xbe, 0x2f, 0xcd, 0xe1, 0x3d,
  0x53, 0x63, 0x32, 0xbd, 0xfd, 0x1c, 0x51, 0x3c, 0xe9, 0xf6, 0xe2, 0xbc,
  0xa0, 0xed, 0xe4, 0xbe, 0x5c, 0xeb, 0xa7, 0x3c, 0x20, 0x68, 0xb5, 0xbe,
  0x26, 0x8a, 0x71, 0x3e, 0x80, 0x55, 0xbd, 0x3d, 0x35, 0x31, 0x9d, 0x3e,
  0x12, 0xe1, 0xdd, 0x3e, 0x0f, 0xe4, 0xc5, 0x3d, 0x5a, 0x50, 0x8b, 0xbe,
  0x14, 0x9c, 0x8b, 0x3e, 0xc6, 0xa5, 0xdc, 0xbd, 0x85, 0x3a, 0xc8, 0x3d,
  0xc6, 0xda, 0xff, 0xff, 0x04, 0x00, 0x00, 0x00, 0x08, 0x00, 0x00, 0x00,
  0x01, 0x00, 0x00, 0x00, 0x02, 0x00, 0x00, 0x00, 0xda, 0xda, 0xff, 0xff,
  0x04, 0x00, 0x00, 0x00, 0x28, 0x00, 0x00, 0x00, 0x96, 0x65, 0x8b, 0xbd,
  0x82, 0x19, 0x33, 0x3f, 0xd9, 0x39, 0x8a, 0xbd, 0x4d, 0x1a, 0x82, 0xbe,
  0x82, 0xe8, 0xe6, 0xbc, 0x6b, 0x5c, 0x2a, 0xbe, 0x14, 0x7d, 0x9f, 0xbb,
  0xf6, 0x3e, 0x81, 0xbd, 0x2d, 0x2e, 0x91, 0xbd, 0x7a, 0xc7, 0x53, 0xbc,
  0x0e, 0xdb, 0xff, 0xff, 0x04, 0x00, 0x00, 0x00, 0x80, 0x02, 0x00, 0x00,
  0x8f, 0x28, 0x25, 0x3e, 0xc9, 0x26, 0xf5, 0x3e, 0x3f, 0x26, 0x19, 0xbf,
  0x39, 0xb6, 0x11, 0xbf, 0x80, 0xc2, 0x8f, 0x3e, 0xf6, 0x6f, 0x81, 0x3e,
  0x23, 0x9b, 0x20, 0xbe, 0xdb, 0x9e, 0x0f, 0xbf, 0xb4, 0x7d, 0xac, 0x3e,
  0x4f, 0x1f, 0x06, 0xbe, 0xc1, 0xc0, 0xab, 0xbd, 0xa6, 0x46, 0x29, 0xbe,
  0x9d, 0x2f, 0xe0, 0x3d, 0x8b, 0x0a, 0x3a, 0x3f, 0xe0, 0xa5, 0x35, 0xbe,
  0x19, 0x03, 0xad, 0x3d, 0x5f, 0xeb, 0x01, 0xc0, 0xb7, 0xf0, 0xb2, 0xbf,
  0xc6, 0xf6, 0x4d, 0x3f, 0x76, 0x27, 0x93, 0x3f, 0x24, 0x98, 0xf4, 0xbf,
  0x7f, 0x5b, 0x55, 0x3e, 0xee, 0x43, 0x7a, 0xbd, 0x43, 0x63, 0x32, 0x3e,
  0x51, 0xc4, 0x2c, 0x3f, 0x4e, 0xf3, 0xb1, 0x3e, 0xdf, 0xbc, 0xf2, 0xbf,
  0x5f, 0xd3, 0xbe, 0xbe, 0x7e, 0xf9, 0x70, 0x3f, 0xfa, 0x63, 0xa1, 0xbe,
  0x93, 0x8d, 0xcc, 0xbe, 0x44, 0x72, 0xf5, 0xbf, 0x76, 0x97, 0x93, 0x3e,
  0x13, 0xbd, 0xec, 0x3d, 0x27, 0xa4, 0x6f, 0x3e, 0x8b, 0xb2, 0x8f, 0x3b,
  0x4e, 0x48, 0xd3, 0x3e, 0xf3, 0x7a, 0x98, 0x3b, 0xcb, 0x07, 0xe2, 0xbe,
  0x84, 0x78, 0xd0, 0xbe, 0x94, 0xc1, 0xdf, 0x3e, 0x2a, 0xf2, 0xf3, 0xbe,
  0x88, 0x8f, 0x4c, 0x3f, 0x9b, 0xd4, 0x0f, 0xbf, 0x7f, 0x0e, 0xf7, 0xbe,
  0x3f, 0x24, 0x1b, 0x3f, 0x96, 0x7e, 0xac, 0x3d, 0x4d, 0x2a, 0xf4, 0x3e,
  0xe2, 0xb2, 0xcb, 0x3e, 0x25, 0x96, 0x08, 0xbe, 0xd5, 0xa5, 0xe2, 0xbe,
  0x0a, 0x2b, 0x6c, 0x3b, 0x44, 0x23, 0xa2, 0xbd, 0xf9, 0xa0, 0x72, 0x3e,
  0xe3, 0x9c, 0x25, 0xbd, 0x1d, 0xf8, 0x3c, 0x3e, 0xea, 0xa8, 0x57, 0xbe,
  0x8a, 0x00, 0xea, 0xbe, 0x1e, 0xb1, 0x8d, 0x3f, 0xaf, 0xc8, 0x5b, 0x3e,
  0x22, 0x38, 0x8b, 0x3e, 0xb0, 0xec, 0x5d, 0x3e, 0x90, 0x68, 0xa7, 0xbe,
  0x15, 0xb5, 0xb6, 0x3e, 0x4b, 0xd7, 0xef, 0x3e, 0x92, 0x4a, 0xdd, 0xbd,
  0xab, 0xee, 0x1a, 0x3e, 0xc0, 0xb7, 0xc4, 0xbe, 0x99, 0xb6, 0x29, 0x3e,
  0xee, 0x1f, 0xb7, 0x3e, 0x8b, 0x62, 0x19, 0x3d, 0x05, 0x66, 0x2a, 0x3e,
  0x38, 0x0f, 0xab, 0x3d, 0xea, 0x05, 0xfd, 0x3e, 0x37, 0x36, 0xf5, 0x3e,
  0x37, 0xcb, 0x48, 0x3e, 0xd6, 0x32, 0xa7, 0xbe, 0x08, 0x3c, 0x0b, 0xbe,
  0xbe, 0x53, 0x48, 0xbe, 0x4d, 0xda, 0x51, 0x3f, 0xd0, 0x90, 0x59, 0x3f,
  0x3d, 0xb8, 0xa6, 0x3e, 0x80, 0x00, 0x6a, 0xbf, 0xfb, 0x77, 0x57, 0x3d,
  0x28, 0x7e, 0xa6, 0x3e, 0x08, 0x52, 0xa5, 0x3e, 0x10, 0xb5, 0x09, 0x3d,
  0x9c, 0x13, 0xdd, 0x3e, 0x62, 0xeb, 0x22, 0xbd, 0x40, 0xca, 0xee, 0xbd,
  0x5f, 0x67, 0x10, 0x3f, 0x3a, 0xcc, 0x1f, 0x3f, 0xcb, 0x86, 0x3c, 0xbe,
  0x2e, 0xc3, 0xf2, 0xbd, 0xc8, 0x6f, 0xa7, 0xbe, 0xa5, 0xcb, 0x35, 0x3f,
  0x55, 0x06, 0xb5, 0xbe, 0xa0, 0x5a, 0xa6, 0x3e, 0x6a, 0xa5, 0x09, 0xbe,
  0x40, 0xd9, 0xe1, 0xbe, 0x98, 0x72, 0x5e, 0x3f, 0xcb, 0x11, 0x0d, 0xbf,
  0x1f, 0x7c, 0xd0, 0x3e, 0xbc, 0x60, 0xe5, 0x3c, 0x2c, 0xc6, 0x5b, 0x3e,
  0x41, 0x87, 0x9b, 0xbe, 0xc1, 0x5b, 0xf8, 0xbe, 0xa0, 0xfe, 0xbb, 0xbe,
  0xce, 0x43, 0xd2, 0x3c, 0xe8, 0x87, 0x38, 0x3e, 0x85, 0x3f, 0xb7, 0xbe,
  0x46, 0xa6, 0x47, 0x3e, 0x99, 0x2e, 0x01, 0x3f, 0x8e, 0x20, 0xfd, 0xbe,
  0xdb, 0x38, 0x57, 0x3d, 0xb4, 0x41, 0xca, 0xbd, 0xc1, 0x59, 0xc8, 0x3e,
  0x46, 0x8b, 0xe4, 0x3e, 0xbe, 0x7c, 0x06, 0x3d, 0x4e, 0x90, 0x19, 0x3e,
  0x71, 0x5f, 0xd1, 0x3d, 0xa1, 0x6e, 0xb2, 0xbe, 0xa4, 0x2f, 0x69, 0x3f,
  0x68, 0xdf, 0xe4, 0xbe, 0xb2, 0x4c, 0x9a, 0x3e, 0x4c, 0x1a, 0xb7, 0xbe,
  0x83, 0x70, 0x92, 0xbe, 0xcb, 0xd9, 0x7a, 0xbb, 0xa2, 0x9d, 0x1c, 0xbf,
  0x38, 0x82, 0x2d, 0x3f, 0x78, 0xbe, 0x47, 0xbd, 0x69, 0xb4, 0x65, 0xbe,
  0xe6, 0xdc, 0x62, 0xbe, 0xae, 0x9b, 0x5c, 0x3e, 0xf9, 0x9c, 0x85, 0x3e,
  0x20, 0x9d, 0x95, 0xbe, 0xb4, 0x2e, 0x81, 0xbe, 0xaa, 0xe4, 0x35, 0xbf,
  0x59, 0xf9, 0xca, 0xbd, 0x0c, 0x66, 0x2d, 0xbe, 0x57, 0xb7, 0x06, 0x3d,
  0x38, 0x2c, 0xd9, 0x3e, 0x5b, 0xae, 0x0c, 0x3f, 0xd2, 0xc5, 0x0b, 0x3e,
  0x66, 0xe8, 0xdb, 0xbe, 0xb8, 0xc5, 0x56, 0xbe, 0xb7, 0x4e, 0x86, 0x3e,
  0xae, 0x6a, 0x8f, 0x3e, 0x47, 0x31, 0x78, 0x3f, 0x1e, 0x95, 0x81, 0x3c,
  0xd1, 0x37, 0xcf, 0xbd, 0x36, 0x6b, 0x15, 0xbe, 0x6f, 0x70, 0xb7, 0xbe,
  0x62, 0x25, 0x60, 0xbe, 0x8e, 0x45, 0x38, 0xbe, 0xf9, 0x91, 0xf2, 0xba,
  0x0b, 0x0d, 0x93, 0xbe, 0xe6, 0x03, 0xc9, 0xbe, 0x5e, 0x28, 0x93, 0x3e,
  0x7a, 0x52, 0x12, 0xbe, 0x9a, 0xdd, 0xff, 0xff, 0x04, 0x00, 0x00, 0x00,
  0x40, 0x02, 0x00, 0x00, 0x14, 0xd6, 0x0e, 0xbd, 0x1a, 0xe5, 0x67, 0xbc,
  0x55, 0x50, 0x9b, 0xbe, 0x07, 0x2c, 0x23, 0x3d, 0x6d, 0x11, 0xb0, 0x3e,
  0xc4, 0xd4, 0x99, 0xbc, 0xbd, 0x64, 0x83, 0xbe, 0x5a, 0x1a, 0xd6, 0x3e,
  0x2d, 0xbb, 0xb1, 0xbc, 0x5a, 0xc3, 0x9e, 0x3e, 0x3a, 0x01, 0x04, 0xbe,
  0x0f, 0x36, 0xb3, 0xbd, 0xcb, 0x1f, 0xaf, 0x3e, 0xc8, 0x43, 0xb8, 0x3e,
  0x1b, 0xdc, 0xdf, 0xbd, 0xf1, 0x29, 0xb5, 0x3e, 0x9b, 0x93, 0x95, 0x3e,
  0xdd, 0x06, 0x85, 0x3d, 0x6b, 0x8e, 0x4a, 0xbe, 0x0a, 0xa9, 0x8c, 0xbd,
  0x90, 0xbc, 0x6e, 0xbe, 0xd6, 0xb1, 0x55, 0xbe, 0xc7, 0x11, 0x48, 0x3e,
  0x7d, 0x4a, 0x0a, 0xbe, 0x88, 0x02, 0x4f, 0x3d, 0x2d, 0x17, 0x37, 0x3e,
  0xe6, 0x51, 0x80, 0xbd, 0xe7, 0x2c, 0x36, 0x3e, 0x09, 0x25, 0xa7, 0xbe,
  0x55, 0x21, 0x19, 0x3e, 0x64, 0x97, 0xb8, 0x3e, 0xe3, 0x09, 0x67, 0x3c,
  0x62, 0x07, 0x43, 0xbd, 0xa5, 0xe1, 0xdc, 0xbd, 0x8c, 0x06, 0x90, 0x3d,
  0xc9, 0x5c, 0x22, 0x3d, 0x4f, 0x78, 0xa4, 0x3e, 0x0a, 0x79, 0xba, 0xbd,
  0xc0, 0x5d, 0x91, 0x3e, 0xf3, 0x29, 0x03, 0xbe, 0x92, 0xde, 0xa9, 0x3e,
  0x25, 0x24, 0x35, 0xbe, 0xd1, 0x57, 0x9f, 0x3e, 0x6a, 0x02, 0xc2, 0x3d,
  0x82, 0x20, 0xb4, 0x3d, 0xf9, 0xa7, 0xdc, 0xbd, 0x0c, 0x25, 0x19, 0xbb,
  0x8b, 0x07, 0x98, 0x3e, 0x25, 0x06, 0x57, 0xbd, 0xb9, 0x36, 0x2d, 0xbe,
  0xaa, 0xd3, 0x92, 0x3e, 0x68, 0x29, 0x02, 0xbe, 0x14, 0xe8, 0x6b, 0xbe,
  0xb9, 0x09, 0x05, 0x3e, 0x0b, 0xab, 0x7e, 0x3d, 0x4f, 0xd3, 0x65, 0x3d,
  0x99, 0x75, 0x8e, 0x3d, 0xaf, 0xf8, 0x53, 0xbe, 0x60, 0x50, 0xd9, 0x3d,
  0xb3, 0x36, 0x89, 0xbd, 0x29, 0x06, 0x92, 0xbe, 0x24, 0xcf, 0xbf, 0x3d,
  0xbc, 0xd8, 0xf2, 0xbd, 0xf2, 0xb1, 0x45, 0x3e, 0x8a, 0x0c, 0x05, 0xbd,
  0x5a, 0xff, 0x61, 0xbe, 0x1c, 0x8f, 0x18, 0xbe, 0x28, 0x03, 0xeb, 0x3d,
  0x3f, 0x43, 0x18, 0x3e, 0xd1, 0x29, 0x11, 0xbe, 0x4b, 0x89, 0xbd, 0x3e,
  0xb8, 0x2d, 0x23, 0xbe, 0xbe, 0x70, 0xc8, 0x3d, 0xeb, 0x1b, 0x0f, 0xbe,
  0x3e, 0xc9, 0x25, 0x3d, 0x74, 0x11, 0x01, 0x3e, 0x9b, 0x27, 0x01, 0x3e,
  0xdc, 0x14, 0x7b, 0x3e, 0xab, 0xbe, 0x62, 0xbe, 0xc8, 0x84, 0xea, 0x3c,
  0xaa, 0x24, 0xce, 0xbe, 0x1a, 0x53, 0xd1, 0xbe, 0xcf, 0x42, 0x24, 0x3e,
  0x98, 0xfd, 0x27, 0x3e, 0xe2, 0x85, 0x97, 0x3d, 0x59, 0x7d, 0xf1, 0xbd,
  0x38, 0xe6, 0x7c, 0xbd, 0x05, 0xcb, 0x64, 0x3e, 0xdf, 0xe0, 0x4a, 0x3e,
  0x51, 0xf0, 0x0d, 0xbe, 0xe3, 0x33, 0xab, 0x3d, 0x03, 0x1c, 0x54, 0x3d,
  0x1d, 0xed, 0x18, 0xbe, 0x98, 0xef, 0x68, 0xbd, 0x04, 0xfe, 0x2b, 0xbd,
  0xa9, 0x68, 0xaf, 0xbd, 0x2c, 0x98, 0x2d, 0x3d, 0x13, 0x14, 0x38, 0xbe,
  0xdd, 0xa5, 0x37, 0xbe, 0x2d, 0x5d, 0xba, 0x3e, 0x2e, 0x82, 0xac, 0x3d,
  0x27, 0x1a, 0x99, 0x3c, 0x15, 0xa1, 0xa8, 0x3e, 0x27, 0xaa, 0x52, 0x3e,
  0x23, 0xe4, 0xf5, 0xbe, 0x98, 0x00, 0xaa, 0xbe, 0x98, 0x31, 0xbd, 0x3e,
  0xf3, 0x54, 0xaa, 0x3d, 0x88, 0xa6, 0xe4, 0x3d, 0xae, 0x75, 0xa1, 0x3e,
  0x8f, 0x65, 0x6e, 0xbe, 0xc4, 0xa3, 0x80, 0x3e, 0xb2, 0xe9, 0x6f, 0x3c,
  0xd2, 0x8c, 0x8c, 0x3e, 0x8a, 0x45, 0x80, 0x3c, 0x56, 0x81, 0x8b, 0xbd,
  0xcd, 0x8e, 0xd6, 0x3e, 0xa7, 0xf2, 0xb4, 0x3e, 0x51, 0xf4, 0xcc, 0xbe,
  0x5f, 0xfa, 0x96, 0x3e, 0xe3, 0xff, 0x85, 0x3e, 0x2d, 0xdd, 0x07, 0x3e,
  0xcb, 0xe6, 0x83, 0x3e, 0x84, 0xb3, 0x33, 0x3e, 0xe3, 0x3c, 0x17, 0x3e,
  0x37, 0xa6, 0xac, 0x3e, 0x81, 0xdb, 0xbe, 0xbd, 0x9a, 0xb6, 0xeb, 0xbd,
  0x68, 0x56, 0x75, 0x3e, 0x44, 0x53, 0xf5, 0x3d, 0xc5, 0xba, 0xf9, 0xbd,
  0x72, 0xa4, 0xff, 0xbc, 0x18, 0x60, 0x32, 0xbe, 0x89, 0x04, 0x1c, 0xbe,
  0x43, 0x01, 0xa7, 0x3e, 0xc0, 0xbe, 0xa0, 0x3e, 0xce, 0x82, 0x93, 0x3e,
  0xe5, 0x02, 0xf7, 0x3d, 0x40, 0x99, 0xd4, 0x3e, 0x2d, 0x01, 0x9f, 0x3d,
  0xbc, 0x7f, 0x66, 0xbd, 0x9a, 0x34, 0x77, 0x3c, 0x00, 0x89, 0x18, 0x3e,
  0x1e, 0x22, 0x00, 0xbd, 0xe6, 0xdf, 0xff, 0xff, 0x04, 0x00, 0x00, 0x00,
  0x80, 0x04, 0x00, 0x00, 0xbd, 0xc7, 0x85, 0x3e, 0x10, 0xf0, 0x04, 0x3e,
  0xcf, 0x9d, 0x15, 0xbe, 0x66, 0xdf, 0x39, 0xbe, 0xa6, 0xfa, 0x2b, 0x3c,
  0xdc, 0x19, 0x44, 0x3d, 0x36, 0xbd, 0xb4, 0xbd, 0xcb, 0xbf, 0xd3, 0x3d,
  0x62, 0x30, 0x1a, 0xbe, 0x4f, 0x1a, 0xac, 0xbe, 0x65, 0x03, 0x89, 0xbe,
  0xc3, 0xa9, 0x6f, 0x3d, 0x40, 0xa0, 0x05, 0xbd, 0x98, 0xdd, 0xfb, 0x3c,
  0xbc, 0x37, 0x5a, 0xbe, 0xa6, 0x35, 0x93, 0x3c, 0x7b, 0x74, 0xed, 0x3d,
  0x7d, 0x09, 0x35, 0x3e, 0x30, 0x09, 0xa1, 0x3d, 0x28, 0xff, 0xab, 0xbd,
  0x81, 0xd4, 0x11, 0xbd, 0x91, 0x32, 0xbf, 0xbe, 0xa9, 0x7e, 0x1b, 0x3c,
  0x54, 0x69, 0xa1, 0x3e, 0x90, 0x4b, 0xaf, 0x3e, 0x46, 0xec, 0xf4, 0x3e,
  0x00, 0x84, 0x0b, 0x3e, 0x1c, 0x8f, 0xc7, 0x3d, 0xc4, 0xb8, 0x2f, 0x3e,
  0x53, 0x78, 0xbd, 0x3e, 0x5a, 0xaf, 0xef, 0x3d, 0x68, 0x3f, 0x36, 0xbd,
  0xa3, 0x2d, 0x44, 0xbe, 0xb7, 0x5f, 0xfc, 0xbd, 0x46, 0x27, 0xae, 0x3d,
  0xf9, 0x02, 0x9c, 0x3e, 0xda, 0x5d, 0x12, 0xbe, 0x61, 0x6f, 0xee, 0x3d,
  0xd0, 0x9b, 0x97, 0xbd, 0x8f, 0xdb, 0x92, 0x3b, 0x55, 0x9b, 0xa9, 0xbc,
  0x4f, 0x52, 0x3d, 0xbd, 0xd0, 0x96, 0xe7, 0x3d, 0x6d, 0x6e, 0x6f, 0xbe,
  0x3b, 0x5c, 0xba, 0xbe, 0x0b, 0x74, 0xa3, 0x3e, 0x27, 0x31, 0xaa, 0xbe,
  0x8f, 0x8f, 0xb4, 0xbe, 0x24, 0xde, 0x2a, 0x3d, 0x41, 0x65, 0xfb, 0x3d,
  0x87, 0x66, 0xc6, 0xbe, 0x87, 0x1a, 0x14, 0x3e, 0xa3, 0x69, 0x4c, 0xbe,
  0xfe, 0x14, 0x10, 0x3e, 0x38, 0xef, 0xc1, 0xbd, 0xe1, 0x7f, 0xd7, 0xbd,
  0xea, 0x3b, 0xb5, 0x3d, 0xe0, 0x8c, 0x00, 0x3d, 0x45, 0x65, 0x88, 0xbd,
  0x3f, 0xd2, 0xf6, 0xbc, 0x66, 0xac, 0x8b, 0x3e, 0x5f, 0x42, 0x73, 0x3e,
  0xae, 0xfa, 0x51, 0xbe, 0xf3, 0x24, 0x9a, 0x3e, 0x31, 0xfc, 0x22, 0x3e,
  0x4c, 0xf4, 0x04, 0x3c, 0x3c, 0x46, 0x48, 0xbe, 0xea, 0xcf, 0xb3, 0x3e,
  0xc1, 0x8d, 0x1b, 0x3e, 0x8d, 0x6e, 0xee, 0x3d, 0xfd, 0x3b, 0x05, 0xbe,
  0xe5, 0x2f, 0x94, 0x3e, 0xdf, 0xf9, 0x7c, 0xbe, 0x43, 0xae, 0x41, 0xbe,
  0xcb, 0x5e, 0xa6, 0x3d, 0x80, 0x95, 0x29, 0xbe, 0x55, 0x52, 0x86, 0x3e,
  0x50, 0x77, 0xb9, 0xbc, 0x9b, 0xfe, 0x34, 0x3e, 0x6b, 0xbb, 0x30, 0x3e,
  0x64, 0x21, 0xce, 0xbd, 0x0b, 0xc6, 0x5f, 0xbd, 0x9c, 0xa2, 0x75, 0x3d,
  0xa7, 0x9a, 0xb2, 0x3c, 0x86, 0xef, 0xe8, 0x3d, 0x49, 0x33, 0x64, 0x3d,
  0xdf, 0xd5, 0x47, 0x3e, 0x81, 0x92, 0x90, 0x3e, 0x73, 0x1d, 0x54, 0xbd,
  0x22, 0x9c, 0x56, 0xbb, 0x27, 0x44, 0xe8, 0x3d, 0xea, 0x26, 0x8f, 0x3e,
  0x26, 0x0f, 0xa3, 0x3e, 0x99, 0x8e, 0x48, 0xbe, 0x48, 0x47, 0x25, 0xbe,
  0xfb, 0xd1, 0xd4, 0x3d, 0xb9, 0xcf, 0x10, 0x3e, 0x7b, 0x75, 0x8e, 0x3d,
  0xf9, 0xc5, 0xb3, 0x3c, 0xcf, 0x53, 0x33, 0x3e, 0xa9, 0x42, 0xd9, 0xbd,
  0xed, 0xf3, 0x82, 0xbe, 0x5c, 0x34, 0xbe, 0xbe, 0xa1, 0xab, 0x33, 0x3e,
  0x66, 0x80, 0x09, 0xbe, 0xef, 0x71, 0x21, 0x3e, 0xda, 0x8f, 0x16, 0xbd,
  0x80, 0x62, 0x31, 0x3d, 0xc6, 0xa3, 0x0a, 0x3d, 0x74, 0x62, 0xdc, 0x3d,
  0x9f, 0xe0, 0x81, 0x3e, 0xa2, 0xab, 0x3b, 0x3e, 0x2e, 0xe9, 0x58, 0xbd,
  0xcb, 0x1d, 0xbd, 0x3c, 0x45, 0xa2, 0xbd, 0x3e, 0xcd, 0x26, 0xfa, 0x3b,
  0x8d, 0x38, 0xb6, 0x3d, 0x74, 0x37, 0x0c, 0xbe, 0x0b, 0xe3, 0xb5, 0x3e,
  0xd3, 0x29, 0x3b, 0xbd, 0x38, 0xb4, 0xa5, 0x3e, 0x4e, 0x03, 0x1c, 0xbe,
  0x3d, 0x52, 0xe3, 0x3e, 0xa6, 0xf8, 0x3c, 0x3e, 0x91, 0xe0, 0x42, 0x3e,
  0x13, 0xe9, 0x8d, 0xbe, 0x34, 0x8f, 0x04, 0x3e, 0x5d, 0xd2, 0x5e, 0xbe,
  0x9c, 0xbb, 0x3f, 0x3d, 0x50, 0xaf, 0x97, 0xbd, 0xcb, 0x92, 0x33, 0x3e,
  0x08, 0x13, 0x0d, 0xbd, 0xa2, 0x42, 0x98, 0x3e, 0xfe, 0xbd, 0x9d, 0xbe,
  0x49, 0xc0, 0x40, 0xbc, 0xe7, 0xc6, 0x12, 0xbc, 0x71, 0x62, 0x91, 0xbd,
  0xcc, 0x6c, 0xe0, 0xbd, 0xb0, 0xfc, 0x04, 0xbe, 0xf9, 0xe0, 0x16, 0xbe,
  0x92, 0x50, 0x34, 0x3d, 0x8f, 0xb9, 0x81, 0xbe, 0x94, 0x81, 0x60, 0xbe,
  0x33, 0xb1, 0x60, 0x3c, 0x61, 0x56, 0x4a, 0x3e, 0x06, 0x19, 0xa2, 0xbd,
  0xd7, 0x17, 0x2e, 0x3e, 0xb3, 0x2b, 0xea, 0x3b, 0x26, 0xb9, 0x35, 0x3e,
  0x63, 0x04, 0xaa, 0xbd, 0x11, 0xd5, 0x99, 0xbd, 0xb8, 0x7b, 0xb0, 0xbd,
  0xd5, 0xdb, 0x15, 0xbe, 0x39, 0x7a, 0xed, 0xbd, 0xfe, 0x99, 0x23, 0xbd,
  0x3d, 0xd9, 0xe6, 0x3d, 0x15, 0xc1, 0xc6, 0x3d, 0x9b, 0x2e, 0xf2, 0x3d,
  0x5c, 0x06, 0x4e, 0xbe, 0x09, 0xa2, 0x07, 0x3e, 0x0a, 0xb5, 0x81, 0x3d,
  0xf0, 0x86, 0x59, 0x3e, 0x2b, 0x23, 0x01, 0x3e, 0xc6, 0x75, 0xe4, 0x3d,
  0x4d, 0x8f, 0xe7, 0xbd, 0xc8, 0x11, 0x9a, 0xbe, 0xc4, 0x17, 0x5f, 0x3d,
  0x80, 0xc7, 0x35, 0x3e, 0x27, 0x15, 0x83, 0x3d, 0xda, 0x1b, 0xa9, 0x3e,
  0xd6, 0xca, 0x81, 0xbe, 0x5a, 0xe7, 0x0f, 0xbd, 0xfc, 0x57, 0x32, 0xbe,
  0xd1, 0xde, 0x0b, 0xbd, 0x24, 0xe9, 0x50, 0xbe, 0xd1, 0xa0, 0xae, 0x3e,
  0x08, 0x09, 0xcd, 0xbd, 0xc5, 0x8a, 0x64, 0xbe, 0xfc, 0xa4, 0xf1, 0x3c,
  0x02, 0xca, 0x87, 0x3e, 0xee, 0x16, 0x34, 0xbd, 0x50, 0x71, 0xbf, 0x3d,
  0x5c, 0x8e, 0x0e, 0xbc, 0x49, 0xa1, 0xf6, 0xbd, 0x5f, 0xed, 0xd4, 0xbd,
  0x7b, 0xa8, 0xa0, 0x3e, 0x23, 0xc4, 0xb7, 0xbd, 0x49, 0x56, 0x9f, 0x3c,
  0x79, 0x00, 0x26, 0xbd, 0x6c, 0x32, 0xd0, 0x3d, 0x18, 0xf2, 0x5d, 0xbe,
  0x7b, 0x51, 0x00, 0xbe, 0xa1, 0xc0, 0x9e, 0x3e, 0xa2, 0xc8, 0x72, 0xbb,
  0x0e, 0x84, 0xb2, 0xbd, 0xa4, 0xd4, 0xaa, 0x3e, 0xd2, 0x53, 0x72, 0x3d,
  0x80, 0xe3, 0x6e, 0x3e, 0x72, 0x63, 0x0e, 0xbe, 0x30, 0xa7, 0x10, 0x3e,
  0xdd, 0xae, 0x0f, 0xbe, 0x05, 0x07, 0x96, 0x3e, 0xea, 0x3c, 0x6a, 0xbe,
  0x69, 0xb9, 0x68, 0x3d, 0x69, 0x7f, 0xef, 0x3d, 0xdd, 0x92, 0x02, 0x3e,
  0xc6, 0xc9, 0x2e, 0xbe, 0x02, 0x7d, 0xda, 0xbd, 0x72, 0x94, 0x35, 0x3d,
  0xba, 0xf4, 0x9d, 0x3e, 0x01, 0x52, 0x99, 0xbe, 0x3b, 0x56, 0x87, 0x3e,
  0x0d, 0x8c, 0x5e, 0xbe, 0x25, 0x5a, 0x7a, 0x3e, 0x84, 0xf4, 0x48, 0xbe,
  0xa4, 0x1a, 0x8b, 0xbd, 0x88, 0xf3, 0x3d, 0x3e, 0x3a, 0x43, 0x6f, 0xbe,
  0xc4, 0x50, 0x82, 0x3b, 0x1f, 0xd1, 0x83, 0x3c, 0xcc, 0x6f, 0xf2, 0xbd,
  0xcb, 0x76, 0x96, 0xbe, 0x35, 0xc3, 0x35, 0xbe, 0xb7, 0xe8, 0xb0, 0xbd,
  0xe0, 0xbc, 0x90, 0xbd, 0xf8, 0xc4, 0x80, 0xbb, 0x3b, 0x18, 0x18, 0xbe,
  0xe0, 0x69, 0xbc, 0xbd, 0xac, 0xd2, 0x33, 0xbd, 0x10, 0xc4, 0x1a, 0xbe,
  0xa2, 0xbe, 0x30, 0x3e, 0x65, 0x45, 0x31, 0xbd, 0x24, 0x0d, 0x24, 0x3e,
  0x8a, 0xc7, 0xe5, 0xbd, 0xeb, 0xc9, 0x34, 0xbe, 0x7d, 0x83, 0x5f, 0x3e,
  0x84, 0x82, 0x09, 0x3e, 0x6d, 0x21, 0xe2, 0x3c, 0xf3, 0xcd, 0x1b, 0xbe,
  0x19, 0x32, 0x22, 0x3e, 0x4d, 0xa9, 0x9b, 0x3e, 0xd4, 0x24, 0x96, 0x3d,
  0x68, 0x09, 0xa4, 0xbd, 0x31, 0x45, 0x09, 0x3e, 0x1b, 0xad, 0x9e, 0x3e,
  0xfa, 0xc9, 0x17, 0x3d, 0x7c, 0x97, 0x00, 0xbe, 0x0e, 0x30, 0xa8, 0x3e,
  0x66, 0xf3, 0x85, 0x3e, 0x26, 0x07, 0x1e, 0x3e, 0x53, 0xfd, 0x9c, 0x3d,
  0xb2, 0x89, 0x0d, 0xbe, 0x10, 0x4b, 0x19, 0xbe, 0xf1, 0x60, 0x85, 0x3c,
  0x4e, 0x23, 0x7f, 0xbe, 0xcc, 0xa3, 0x86, 0x3e, 0xa4, 0xf3, 0x01, 0xbe,
  0xa2, 0x3c, 0x75, 0x3e, 0xa8, 0x48, 0xe9, 0x3d, 0x03, 0xb1, 0xa2, 0x3e,
  0xc1, 0x1f, 0x49, 0xbd, 0xc5, 0x82, 0xbd, 0xbd, 0x12, 0xc0, 0xcc, 0x3c,
  0x50, 0x80, 0x3e, 0x3e, 0xf1, 0x96, 0x59, 0xbd, 0x60, 0xe5, 0xbb, 0x3e,
  0x82, 0x7a, 0x86, 0xbc, 0xe8, 0xa2, 0x81, 0x3e, 0x45, 0xdf, 0x49, 0xba,
  0x65, 0x7c, 0x76, 0x3e, 0x4e, 0x19, 0xb9, 0xbe, 0x2b, 0x3f, 0xf3, 0xbd,
  0x22, 0x0a, 0xe5, 0xbd, 0xe9, 0x78, 0xb2, 0xbd, 0x5f, 0xf7, 0xca, 0xbc,
  0x9e, 0x7c, 0xa6, 0xbb, 0xc3, 0x16, 0xa1, 0x3d, 0xa1, 0xae, 0x74, 0x3e,
  0x0e, 0xca, 0x71, 0xbe, 0x79, 0x82, 0x8f, 0xbe, 0x16, 0xfa, 0x54, 0xbe,
  0xf8, 0xc7, 0x8c, 0xbd, 0xbc, 0xb5, 0x9c, 0x3d, 0x68, 0xeb, 0xc7, 0xbd,
  0x75, 0x7b, 0x2d, 0xbc, 0x9a, 0xd3, 0x04, 0x3d, 0x5c, 0x3b, 0xbf, 0x3d,
  0xbb, 0x53, 0x1b, 0x3d, 0x72, 0xe4, 0xff, 0xff, 0x04, 0x00, 0x00, 0x00,
  0x00, 0x09, 0x00, 0x00, 0x2f, 0x8d, 0x71, 0xbe, 0x35, 0xc5, 0x48, 0x3e,
  0x1c, 0x46, 0xa9, 0xbe, 0x57, 0x76, 0x26, 0x3c, 0x4b, 0x6b, 0x67, 0xbe,
  0x1e, 0x1e, 0x2d, 0xbe, 0xc2, 0xef, 0xf1, 0x3c, 0xad, 0x61, 0x69, 0xbd,
  0x0e, 0x01, 0x94, 0xbd, 0xe3, 0x11, 0x85, 0xbd, 0x71, 0x90, 0x88, 0xbe,
  0x97, 0x32, 0x2a, 0xbe, 0x3e, 0xd0, 0x1b, 0x3c, 0x86, 0xbd, 0x26, 0xbd,
  0x7f, 0x3d, 0xcf, 0x3b, 0x5e, 0x89, 0x58, 0x3e, 0x57, 0x15, 0x79, 0x3c,
  0xce, 0x68, 0x76, 0x3d, 0x8c, 0xff, 0x64, 0xbe, 0x41, 0xda, 0x97, 0xbe,
  0x50, 0x2f, 0x2a, 0xbe, 0x1e, 0x40, 0xee, 0xbd, 0x7e, 0x5a, 0x31, 0xbc,
  0x02, 0xed, 0x25, 0x3e, 0x6b, 0x91, 0x06, 0xbe, 0x45, 0xd3, 0x11, 0x3e,
  0x17, 0xbf, 0x02, 0xbe, 0x67, 0x23, 0xde, 0xbd, 0xb8, 0xe1, 0x60, 0xbe,
  0xc8, 0x7d, 0x25, 0x3c, 0x1d, 0x67, 0xa6, 0xbd, 0x8c, 0xb1, 0xbc, 0xbd,
  0xaf, 0x97, 0x28, 0xbc, 0xd6, 0xba, 0x10, 0xbc, 0x80, 0x08, 0x60, 0xbe,
  0xdc, 0xdb, 0x36, 0xbd, 0xb8, 0xec, 0x8d, 0x3d, 0xdd, 0x1d, 0x90, 0x3e,
  0x22, 0x8f, 0x8c, 0x3e, 0x45, 0x3b, 0xec, 0x3d, 0x5d, 0x07, 0x7e, 0x3d,
  0xff, 0x2c, 0xca, 0x3e, 0xc4, 0xe3, 0x1b, 0x3e, 0x3e, 0x71, 0x93, 0xbd,
  0x65, 0xa9, 0xf2, 0x3c, 0x84, 0xbb, 0x81, 0x3e, 0xab, 0x22, 0x87, 0x3d,
  0x58, 0xb4, 0xc2, 0xbd, 0x63, 0xdd, 0xdf, 0x3d, 0x36, 0xed, 0x77, 0x3d,
  0x34, 0x33, 0x71, 0x3d, 0x9e, 0x24, 0x25, 0xbe, 0x70, 0xdf, 0x8c, 0xbd,
  0x68, 0x06, 0x3a, 0xbe, 0x10, 0xdd, 0x93, 0x3d, 0xde, 0xe7, 0xc1, 0xbd,
  0x08, 0x2c, 0x5e, 0x3e, 0xa0, 0x11, 0xa9, 0xbb, 0x51, 0xcf, 0x39, 0x3e,
  0x5d, 0x1f, 0xc2, 0x3d, 0xc8, 0xa1, 0x4e, 0x3e, 0x5f, 0xf9, 0x69, 0x3d,
  0x92, 0xb6, 0xc8, 0x3d, 0xa4, 0x32, 0x3b, 0xbe, 0x33, 0x87, 0x44, 0x3e,
  0x6d, 0xd0, 0x47, 0x3e, 0x18, 0xde, 0x4b, 0xbd, 0x96, 0xd1, 0x3e, 0x3d,
  0xd2, 0x7e, 0xb6, 0xbd, 0x54, 0x6e, 0x06, 0x3d, 0x46, 0x81, 0x15, 0x3e,
  0xfa, 0x3c, 0x3a, 0x3c, 0x23, 0x47, 0xa8, 0xbc, 0xb2, 0x1b, 0x0b, 0xbe,
  0xcb, 0x00, 0xbc, 0x3c, 0x97, 0x94, 0xe4, 0xbd, 0x05, 0x43, 0x26, 0x3e,
  0x7d, 0xc6, 0xd7, 0x3d, 0xf4, 0xc0, 0x02, 0x3d, 0xc1, 0xf4, 0xce, 0x3d,
  0xfd, 0x64, 0xfa, 0x3d, 0xe7, 0xc0, 0xf7, 0xbd, 0x87, 0x7e, 0xde, 0xbd,
  0x89, 0x49, 0x22, 0xbe, 0x9a, 0x34, 0x1c, 0x3d, 0x4e, 0xe4, 0x08, 0x3e,
  0x30, 0xcf, 0x88, 0x3d, 0xd9, 0x52, 0xcb, 0xbd, 0xe2, 0xed, 0x07, 0xbe,
  0xe0, 0xe5, 0x2a, 0xbe, 0x9b, 0xb0, 0x83, 0x3c, 0x05, 0xb5, 0x63, 0xbe,
  0x3b, 0x2c, 0xe1, 0xbc, 0x20, 0xea, 0xae, 0xbd, 0xdc, 0xbd, 0x0f, 0x3e,
  0xe2, 0xa8, 0x94, 0xbd, 0x34, 0xfc, 0x25, 0x3e, 0x51, 0x90, 0x92, 0xbd,
  0x88, 0xc5, 0x81, 0x3c, 0x40, 0x14, 0xbe, 0xbe, 0x86, 0x7f, 0x70, 0x3d,
  0x0a, 0xf8, 0x19, 0x3e, 0x05, 0xd2, 0x9a, 0xbe, 0x3d, 0x59, 0xc2, 0x3e,
  0x94, 0x79, 0x7f, 0x3d, 0xdb, 0x6d, 0x35, 0x3e, 0xc5, 0xd0, 0x4a, 0xbd,
  0x27, 0xfc, 0xb6, 0xbb, 0x47, 0xa7, 0x97, 0x3e, 0xaa, 0x4b, 0xd5, 0x3c,
  0xb1, 0xd6, 0x58, 0xbe, 0x3b, 0x78, 0x8e, 0x3e, 0x31, 0xd6, 0x32, 0xbd,
  0x50, 0xd3, 0x26, 0x3e, 0x2a, 0x1c, 0xa2, 0x3d, 0x85, 0x49, 0x5b, 0xbd,
  0x2b, 0x5b, 0x33, 0x3e, 0x99, 0x28, 0x8b, 0x3d, 0xbd, 0xa7, 0x92, 0xbb,
  0x08, 0xa0, 0x29, 0xbe, 0x86, 0x3e, 0xf3, 0xbc, 0x77, 0x23, 0x01, 0xbe,
  0x3e, 0x2e, 0x64, 0x3d, 0xf1, 0xb8, 0xad, 0xbe, 0x45, 0xa3, 0x45, 0xbe,
  0xd9, 0x15, 0x68, 0xbe, 0x89, 0xb5, 0xdb, 0x3c, 0x24, 0x7c, 0xec, 0x3b,
  0xfb, 0xc1, 0x9f, 0x3e, 0x87, 0x0a, 0x93, 0xbe, 0x7a, 0xac, 0xc3, 0x3d,
  0xd4, 0x3d, 0x96, 0x3d, 0xa5, 0x14, 0xf9, 0x3d, 0x81, 0x0b, 0x11, 0x3e,
  0xed, 0x99, 0x08, 0xbe, 0x93, 0x03, 0xc7, 0x3d, 0x09, 0x7d, 0x43, 0xbd,
  0x2e, 0x0c, 0x1c, 0xbd, 0xd5, 0xa7, 0x82, 0x3e, 0x46, 0x55, 0x5e, 0xbe,
  0x55, 0x91, 0x93, 0x3e, 0x5a, 0xf2, 0x37, 0x3e, 0x04, 0x03, 0x13, 0x3d,
  0x5f, 0x8e, 0x0f, 0x3e, 0x48, 0xfc, 0xd3, 0x3d, 0xfb, 0xb8, 0xa5, 0x3c,
  0x4a, 0xf5, 0x16, 0xbe, 0xb5, 0x2b, 0x19, 0xbd, 0xa7, 0x34, 0x5f, 0x3c,
  0x34, 0x97, 0x7f, 0xbd, 0x12, 0xd7, 0x2b, 0x3e, 0x39, 0xa0, 0x96, 0x3d,
  0x30, 0x1d, 0xba, 0x3d, 0x3d, 0x38, 0x99, 0x3d, 0x35, 0x05, 0xbb, 0x3d,
  0xfa, 0x10, 0x18, 0x3e, 0x0b, 0x09, 0xbe, 0xbc, 0x8c, 0x2c, 0x11, 0xbe,
  0xbf, 0x4c, 0xa5, 0x3d, 0x67, 0xb8, 0xfd, 0x3c, 0x65, 0xc2, 0xdc, 0xbd,
  0xe4, 0xbf, 0xd9, 0xbd, 0xb7, 0x27, 0x01, 0x3e, 0xba, 0x9d, 0x26, 0x3e,
  0xb1, 0x59, 0xc1, 0xbd, 0x1b, 0xf7, 0xdc, 0xba, 0x9b, 0xf2, 0x49, 0xbd,
  0x59, 0x34, 0x96, 0x3e, 0x6a, 0x13, 0x75, 0x3e, 0xa3, 0xc7, 0x0c, 0x3d,
  0x64, 0xe1, 0x35, 0x3e, 0xfd, 0x66, 0x14, 0x3e, 0x22, 0xb6, 0xf9, 0x3d,
  0x2b, 0x53, 0x03, 0x3e, 0x6e, 0xd9, 0x02, 0x3e, 0x16, 0x5b, 0xaa, 0xbc,
  0x34, 0xed, 0xf8, 0xbd, 0x8d, 0xcf, 0x12, 0x3e, 0xec, 0x90, 0x4d, 0x3e,
  0xcb, 0x2e, 0x54, 0x3d, 0x74, 0x4b, 0x57, 0x3e, 0xa3, 0xe9, 0x8d, 0xbd,
  0x77, 0x5a, 0x96, 0xbd, 0x7d, 0x10, 0xfe, 0x3b, 0xf1, 0x2b, 0x48, 0x3e,
  0xfb, 0x08, 0xfd, 0x3d, 0x7d, 0xa0, 0x91, 0x3d, 0x49, 0x4b, 0x2a, 0xbe,
  0x90, 0xd9, 0xa0, 0xbd, 0xaf, 0x85, 0x1f, 0x3e, 0x42, 0xe1, 0x10, 0x3e,
  0x65, 0xd0, 0x0e, 0xbc, 0xf8, 0x77, 0x4c, 0x3e, 0xbf, 0x2b, 0xfe, 0xbc,
  0xfb, 0x27, 0x4b, 0x3e, 0x1a, 0x43, 0xbe, 0x3d, 0xe4, 0xa4, 0x37, 0x3e,
  0xec, 0xb2, 0xf2, 0xbd, 0xfc, 0xa7, 0xe4, 0x3d, 0x29, 0xd4, 0x39, 0x3d,
  0x9b, 0x9c, 0x20, 0xbd, 0x86, 0xc6, 0x28, 0x3e, 0x0c, 0x39, 0x94, 0xbd,
  0x64, 0x67, 0x40, 0xbe, 0x86, 0xe7, 0x74, 0x3d, 0x9c, 0xd6, 0xab, 0x3d,
  0x9c, 0xac, 0x6f, 0x3d, 0xf5, 0xd4, 0xf3, 0xbd, 0xc6, 0x37, 0x30, 0x3e,
  0xfe, 0x67, 0x95, 0x3e, 0xbb, 0xd0, 0x91, 0xbd, 0x7e, 0x96, 0x34, 0xbe,
  0x21, 0xb4, 0x88, 0x3b, 0x3e, 0xd5, 0x62, 0x3e, 0x1b, 0xa1, 0x8f, 0x3e,
  0xec, 0xc4, 0x26, 0xbe, 0xed, 0x66, 0x0d, 0x3e, 0x58, 0x13, 0x58, 0x3e,
  0x91, 0xda, 0x05, 0x3e, 0x7c, 0x03, 0x41, 0x3d, 0xe5, 0xc3, 0x75, 0xbd,
  0x8e, 0x16, 0x0a, 0x3e, 0xea, 0x42, 0xf9, 0x3d, 0x8d, 0x99, 0x99, 0xbb,
  0xf0, 0xa4, 0x2f, 0x3d, 0x4c, 0xd7, 0x8f, 0x3e, 0x65, 0x49, 0xcb, 0x3c,
  0x3c, 0x5e, 0x54, 0xbe, 0xb3, 0x3b, 0x04, 0x3e, 0x2d, 0xac, 0x44, 0x3e,
  0x9f, 0x7e, 0x05, 0x3c, 0xe5, 0x8f, 0xaa, 0xbd, 0x0b, 0x5a, 0x6b, 0x3e,
  0xda, 0x17, 0x4e, 0x3e, 0x32, 0x51, 0xbf, 0x3d, 0xdf, 0xf2, 0x2c, 0xbe,
  0x08, 0x20, 0xee, 0x3d, 0x60, 0x74, 0x7c, 0x3e, 0x07, 0xd1, 0x39, 0x3e,
  0x03, 0x0f, 0x2e, 0x3d, 0x3d, 0x56, 0x0d, 0x3c, 0x19, 0x14, 0x15, 0xbe,
  0xf7, 0x42, 0xee, 0x3d, 0x23, 0xaa, 0x2a, 0xbc, 0x9f, 0x23, 0x8f, 0xbd,
  0xc7, 0x0a, 0x7d, 0x3e, 0x07, 0xa8, 0x43, 0x3d, 0x0b, 0x2f, 0xed, 0x3d,
  0xc6, 0xe6, 0x48, 0xbe, 0x53, 0xae, 0x5d, 0xbc, 0x23, 0xb1, 0x83, 0xbd,
  0x33, 0x3a, 0x0f, 0xbe, 0xae, 0x93, 0x50, 0x3e, 0xa3, 0x9f, 0x93, 0x3d,
  0x3e, 0x2b, 0x0c, 0xbe, 0xe1, 0x70, 0x9c, 0xbd, 0x3a, 0x6f, 0x40, 0x3e,
  0x69, 0x59, 0x89, 0xbc, 0xb4, 0x6c, 0x05, 0xbe, 0xb0, 0xae, 0x00, 0x3b,
  0xfb, 0x3b, 0x27, 0x3e, 0xa4, 0x5d, 0x82, 0xbc, 0x7e, 0x43, 0x5c, 0xbc,
  0x44, 0xc1, 0x89, 0x3e, 0x1e, 0xb7, 0x35, 0xbd, 0xd9, 0xe3, 0x11, 0x3e,
  0xe0, 0xda, 0x56, 0xbd, 0x7a, 0x31, 0xd4, 0xbe, 0x03, 0xa8, 0x6b, 0x3d,
  0xf9, 0xa3, 0x4d, 0xbe, 0x16, 0xa2, 0x7c, 0xbe, 0x36, 0x5f, 0x78, 0x3d,
  0xcc, 0xaf, 0xf8, 0xbd, 0xf6, 0x2a, 0xe6, 0xbd, 0x06, 0xb2, 0x73, 0xbe,
  0x2a, 0x9d, 0x66, 0xbe, 0x20, 0xdb, 0xb5, 0x3d, 0xdc, 0x9c, 0xee, 0xbd,
  0xc0, 0x4a, 0x81, 0xbe, 0x64, 0xc9, 0x52, 0x3e, 0x47, 0x5f, 0xda, 0x3d,
  0xe3, 0x10, 0xa5, 0xbd, 0x37, 0x18, 0xbb, 0x3c, 0x17, 0xb8, 0x36, 0xbe,
  0xe1, 0x8e, 0x14, 0x3e, 0xa2, 0x44, 0x1a, 0xbe, 0x71, 0x4c, 0xeb, 0x3d,
  0xfb, 0x88, 0x39, 0x3e, 0x38, 0x47, 0x75, 0xbd, 0x14, 0xab, 0x82, 0x3e,
  0x78, 0xf1, 0x24, 0xbe, 0x12, 0xf4, 0xd0, 0xbd, 0x46, 0x17, 0x09, 0x3c,
  0x0d, 0x18, 0x9c, 0xbd, 0x55, 0x12, 0x2f, 0xbd, 0x7a, 0x43, 0x2e, 0x3d,
  0xed, 0x31, 0x79, 0x3e, 0x20, 0x89, 0x5e, 0x3e, 0x46, 0x3c, 0x42, 0x3d,
  0x79, 0x95, 0x97, 0xbe, 0x41, 0xdd, 0x89, 0x3d, 0x62, 0x10, 0x09, 0xbd,
  0x19, 0x70, 0x2b, 0x3e, 0xe5, 0x34, 0xbe, 0xbd, 0xf0, 0x3c, 0x8f, 0x3e,
  0xa1, 0x41, 0x34, 0x3e, 0x6d, 0xeb, 0x4f, 0xbe, 0x03, 0x98, 0xa6, 0xbe,
  0xd7, 0x58, 0x2a, 0xbc, 0x74, 0x57, 0x0e, 0x3e, 0xa0, 0x88, 0x0e, 0xbd,
  0xf0, 0xaa, 0x71, 0x3d, 0xb0, 0xfd, 0x29, 0x3e, 0xb9, 0x82, 0x94, 0xbc,
  0x89, 0x2a, 0x0f, 0x3e, 0xb6, 0xf8, 0xbd, 0x3d, 0x16, 0x4b, 0xc1, 0x3d,
  0x8d, 0xe0, 0xa7, 0x3e, 0xcf, 0x46, 0x3c, 0x3e, 0x87, 0xfa, 0xcf, 0xbd,
  0xdf, 0x52, 0x10, 0x3e, 0x17, 0x3b, 0xc1, 0xbd, 0x4d, 0x2e, 0xde, 0x3d,
  0xa5, 0x12, 0xa7, 0x3d, 0x45, 0xef, 0x8b, 0xbd, 0xe3, 0x4d, 0x9b, 0x3e,
  0x0f, 0x55, 0xf0, 0xbd, 0x28, 0x31, 0xd3, 0xbd, 0xfe, 0x71, 0x28, 0x3e,
  0xf7, 0xc3, 0x47, 0xbe, 0x0e, 0x23, 0xcf, 0x3d, 0xd5, 0x35, 0x3b, 0xbe,
  0x8c, 0x95, 0x00, 0xbd, 0xfa, 0xae, 0xb2, 0x3d, 0x64, 0x65, 0x40, 0xbd,
  0xb3, 0x86, 0x4a, 0xbe, 0x47, 0xe5, 0x19, 0x3e, 0xff, 0xdd, 0x04, 0xbc,
  0xb9, 0xe2, 0x77, 0xbd, 0xf0, 0xa4, 0xde, 0xbc, 0xef, 0xd5, 0x42, 0xbe,
  0x06, 0x3e, 0x92, 0x3e, 0xc0, 0x2c, 0x64, 0xbe, 0x10, 0x9e, 0x64, 0xbd,
  0x4a, 0xf5, 0x15, 0x3e, 0x70, 0x96, 0xc2, 0xbd, 0xc2, 0x2b, 0x07, 0x3e,
  0x6d, 0x18, 0x0f, 0xbe, 0x64, 0xb4, 0x49, 0x3e, 0xfd, 0xc4, 0x0b, 0x3e,
  0x43, 0x82, 0x85, 0xbe, 0x17, 0x89, 0x7b, 0x3d, 0x75, 0x72, 0x7c, 0x3c,
  0x83, 0x2b, 0x58, 0x3e, 0x11, 0x8f, 0x5b, 0x3d, 0xd7, 0x3c, 0x35, 0xbe,
  0x30, 0x68, 0xcd, 0x3d, 0xc4, 0xe3, 0xba, 0xbd, 0xce, 0xec, 0x92, 0x3d,
  0xa2, 0x49, 0x7b, 0xbe, 0x63, 0x83, 0xcb, 0xbc, 0xea, 0x8c, 0x91, 0xbe,
  0xaf, 0x50, 0x41, 0xbe, 0x6e, 0x46, 0xb4, 0x3d, 0x90, 0x76, 0x45, 0x3e,
  0x73, 0x2f, 0xf0, 0x3d, 0x82, 0xfa, 0xbf, 0xbd, 0xec, 0x50, 0x98, 0x3e,
  0x2d, 0x6b, 0xc2, 0x3d, 0x78, 0x09, 0xe3, 0xbd, 0xdf, 0x42, 0x49, 0xbe,
  0xb5, 0xbb, 0x06, 0x3d, 0xba, 0x81, 0x0e, 0x3d, 0xd5, 0xa6, 0x71, 0xbe,
  0x82, 0x02, 0x0d, 0x3e, 0xf8, 0x00, 0x48, 0x3d, 0x87, 0x86, 0x88, 0x3e,
  0x39, 0x24, 0xd0, 0x3d, 0x53, 0x40, 0x50, 0x3e, 0x6a, 0x9d, 0xe3, 0x3d,
  0x6c, 0x31, 0x77, 0x3e, 0x85, 0xf7, 0x88, 0xbe, 0x1b, 0xad, 0x3a, 0x3e,
  0x0d, 0xd4, 0x20, 0xbe, 0x72, 0x2b, 0x87, 0x3d, 0x59, 0xa7, 0x39, 0xbe,
  0x98, 0xfe, 0xef, 0xbd, 0x8b, 0x3f, 0x72, 0x3b, 0x0c, 0x41, 0xd2, 0x3d,
  0xa1, 0x7c, 0xf5, 0xbd, 0x1d, 0xee, 0xd2, 0xbd, 0xd9, 0x20, 0x7e, 0x3e,
  0x30, 0x56, 0x94, 0x3e, 0x98, 0x48, 0x07, 0x3e, 0xac, 0x09, 0xec, 0x3d,
  0xde, 0x83, 0x1b, 0xbe, 0xda, 0x9e, 0xa7, 0x3d, 0x2b, 0x7f, 0x2d, 0xbd,
  0x7a, 0x27, 0x17, 0xbe, 0xbf, 0xbc, 0x1e, 0xbd, 0x96, 0xed, 0x34, 0x3e,
  0xed, 0x46, 0x04, 0xbe, 0x25, 0xd0, 0x9e, 0x3b, 0x40, 0x29, 0xb7, 0x3d,
  0xa6, 0xb8, 0x34, 0x3e, 0xa3, 0x78, 0x52, 0xbe, 0xe1, 0x0e, 0x8a, 0xbd,
  0xf9, 0x8c, 0xa3, 0xbd, 0x7c, 0xde, 0x99, 0x3e, 0xf5, 0x70, 0x2c, 0x3e,
  0x62, 0x30, 0x3a, 0x3e, 0xb1, 0xc8, 0xbe, 0xbd, 0x43, 0x88, 0x93, 0x3d,
  0x58, 0x21, 0x01, 0xbe, 0x58, 0x59, 0x04, 0x3e, 0xba, 0x13, 0x0d, 0xbe,
  0x4e, 0xbb, 0x46, 0x3d, 0xb5, 0xc6, 0x9b, 0x3d, 0x6c, 0x24, 0xcb, 0x3d,
  0x2d, 0xe9, 0x4c, 0x3e, 0x88, 0x15, 0xdf, 0xbd, 0xf5, 0xc2, 0x56, 0xbe,
  0x46, 0x42, 0x9b, 0x3d, 0x93, 0x28, 0x1a, 0xbe, 0x4a, 0xd4, 0xca, 0x3d,
  0xa4, 0x20, 0x2b, 0xbe, 0xdf, 0x65, 0xf5, 0x3c, 0xac, 0x14, 0xa7, 0x3e,
  0xaf, 0xc7, 0x6a, 0x3e, 0x2a, 0xd6, 0x04, 0x3e, 0x46, 0x44, 0x5d, 0x3e,
  0x32, 0x4d, 0x51, 0x3d, 0xcc, 0x7b, 0x08, 0xbe, 0x72, 0x81, 0x36, 0xbe,
  0xb9, 0x97, 0x52, 0x3e, 0x07, 0x6b, 0x52, 0x3e, 0x56, 0xe7, 0xdf, 0xbd,
  0x4f, 0xc2, 0x80, 0x3c, 0xbd, 0x05, 0x03, 0xbc, 0x6d, 0x5b, 0xd9, 0xbd,
  0xa4, 0x8c, 0x74, 0xbd, 0x38, 0x37, 0x88, 0x3c, 0xb5, 0x15, 0x0e, 0x3e,
  0xe5, 0x0f, 0xca, 0xbb, 0x06, 0x22, 0xab, 0x3d, 0xef, 0x6f, 0x38, 0xbd,
  0x83, 0x14, 0x25, 0x3e, 0x38, 0xce, 0xee, 0x3d, 0xd1, 0x8d, 0xaf, 0xbc,
  0x38, 0x58, 0x15, 0x3e, 0x50, 0x86, 0xfe, 0xbd, 0xe0, 0x25, 0x71, 0xbe,
  0x07, 0x70, 0x4b, 0x3e, 0x1d, 0x25, 0x80, 0x3d, 0xce, 0x16, 0x06, 0x3e,
  0x4f, 0xf2, 0x17, 0x3d, 0xf6, 0xce, 0xbe, 0x3d, 0x68, 0xcc, 0xad, 0xbd,
  0xe3, 0x49, 0x30, 0x3d, 0xf7, 0xc4, 0x67, 0x3d, 0xfd, 0x28, 0xb1, 0xbd,
  0x85, 0xe9, 0x06, 0xbe, 0xc0, 0x09, 0x34, 0xbd, 0xfe, 0x29, 0xff, 0xbd,
  0x96, 0xda, 0x91, 0xbd, 0x05, 0x3d, 0x56, 0x3e, 0x3f, 0xeb, 0x3e, 0x3e,
  0x76, 0x95, 0x00, 0x3e, 0x2b, 0x9b, 0x72, 0x3e, 0x11, 0x89, 0x63, 0x3d,
  0x59, 0x6c, 0x2e, 0x3e, 0xbb, 0x98, 0x4c, 0xbe, 0x12, 0x2d, 0x0b, 0x3e,
  0x24, 0x23, 0x0e, 0x3c, 0x47, 0xce, 0x5e, 0xbd, 0x12, 0x73, 0xe4, 0x3c,
  0x21, 0x16, 0x6d, 0x3d, 0x9b, 0x4c, 0x45, 0x3e, 0xf8, 0xbe, 0x8c, 0x3d,
  0x09, 0x21, 0x60, 0x3d, 0x7d, 0x33, 0x3b, 0xbe, 0xb3, 0x4c, 0xa8, 0xbb,
  0x38, 0xc2, 0xb3, 0x3d, 0x9b, 0x9f, 0xc9, 0x3a, 0x7c, 0x89, 0x11, 0xbe,
  0x51, 0x7c, 0x2d, 0x3e, 0xcc, 0x78, 0x0a, 0x3e, 0x13, 0xdb, 0x45, 0x3b,
  0x4d, 0x41, 0xe7, 0x3d, 0x3e, 0x30, 0x2c, 0xbe, 0xaa, 0x44, 0xc5, 0x3d,
  0x79, 0xcf, 0x82, 0xbe, 0x20, 0x91, 0x65, 0xbd, 0xd7, 0x98, 0x5a, 0xbd,
  0xdf, 0x08, 0x5e, 0xbd, 0x22, 0xf0, 0x1d, 0x3e, 0x5a, 0x6c, 0x07, 0xbe,
  0x60, 0x9b, 0x62, 0xbd, 0x3f, 0xcd, 0x9c, 0xbd, 0x73, 0x00, 0x73, 0xbe,
  0xb6, 0x03, 0x0f, 0xbe, 0x2f, 0xeb, 0x03, 0x3e, 0x05, 0x3e, 0x60, 0xbe,
  0x91, 0xe1, 0x90, 0x3e, 0xaf, 0x79, 0x42, 0xbe, 0xf6, 0x38, 0x4d, 0x3d,
  0x38, 0xfb, 0x12, 0x3e, 0xb9, 0x0e, 0x1a, 0x3d, 0x31, 0xf2, 0x0f, 0xbb,
  0x5e, 0x5e, 0x18, 0xbe, 0x00, 0x45, 0x8c, 0x3e, 0x85, 0x4b, 0x18, 0xbe,
  0x78, 0xb4, 0x64, 0x3c, 0xb2, 0x97, 0xf7, 0x3d, 0x8f, 0xb9, 0x26, 0x3e,
  0xd0, 0x4e, 0x31, 0x3e, 0xa8, 0x94, 0x27, 0xbe, 0xa9, 0x12, 0x86, 0x3d,
  0xf4, 0x80, 0x95, 0x3c, 0x62, 0x6b, 0x57, 0xbd, 0x58, 0x53, 0x4c, 0xbe,
  0x60, 0x6a, 0x33, 0x3b, 0xd6, 0x98, 0x08, 0x3d, 0x89, 0xb3, 0xb3, 0x3c,
  0xd4, 0xbb, 0xc5, 0x3c, 0x5d, 0x59, 0xde, 0xbd, 0xf4, 0x8c, 0x6d, 0xbd,
  0xc5, 0x53, 0x86, 0x3e, 0x46, 0x19, 0x39, 0x3e, 0x8a, 0xd2, 0x2a, 0x3d,
  0xd6, 0xce, 0xa0, 0x3d, 0x8c, 0x54, 0x1a, 0x3e, 0xbf, 0x09, 0xaf, 0xbd,
  0xb1, 0x11, 0x39, 0x3e, 0x72, 0x86, 0x36, 0x3e, 0x58, 0x0e, 0x03, 0x3d,
  0xdf, 0xfe, 0x61, 0xbd, 0x36, 0xa0, 0x27, 0x3e, 0x53, 0x4a, 0x5e, 0x3a,
  0xb4, 0xe4, 0xa4, 0x3d, 0xc2, 0x15, 0xf7, 0xbd, 0xeb, 0xb9, 0xf0, 0x3d,
  0x94, 0x05, 0x04, 0x3d, 0xdd, 0xb3, 0xe2, 0xbd, 0x1a, 0x3d, 0x3f, 0x3e,
  0x6d, 0x09, 0xb8, 0x3e, 0x49, 0x4e, 0x43, 0xbe, 0x25, 0x76, 0x51, 0xbd,
  0x9a, 0x69, 0xf6, 0xbc, 0x1f, 0xc0, 0xf2, 0x3d, 0x5d, 0xab, 0xf5, 0x3d,
  0x42, 0x48, 0x29, 0xbd, 0x82, 0xb4, 0x40, 0x3e, 0xc8, 0x20, 0x56, 0x3e,
  0x76, 0xbc, 0x13, 0x3e, 0x5b, 0xf0, 0xec, 0xbd, 0x80, 0x06, 0x70, 0xbd,
  0xde, 0xea, 0x8d, 0x3e, 0x1b, 0xd3, 0xdd, 0x3c, 0x2d, 0x3c, 0x31, 0x3e,
  0x47, 0x9b, 0x97, 0xbd, 0x84, 0x5b, 0xa2, 0x3d, 0xf8, 0xfc, 0x6f, 0x3e,
  0x36, 0x44, 0x43, 0xbe, 0x0f, 0xbc, 0xd2, 0x3d, 0xbc, 0x2b, 0x8b, 0xbc,
  0x98, 0xe0, 0x86, 0x3e, 0x10, 0x02, 0x28, 0xbe, 0x95, 0x2c, 0xcb, 0x3d,
  0xd4, 0x51, 0xc6, 0xbb, 0xac, 0x44, 0xd1, 0xbd, 0xa1, 0xda, 0xdc, 0xbc,
  0xa2, 0xaa, 0x90, 0x3d, 0x79, 0x03, 0x49, 0xbc, 0x3d, 0x9b, 0x32, 0x3e,
  0xe3, 0x53, 0x26, 0xbe, 0x7e, 0xed, 0xff, 0xff, 0x04, 0x00, 0x00, 0x00,
  0x00, 0x12, 0x00, 0x00, 0x5e, 0xb0, 0x6c, 0xbd, 0xfc, 0xc3, 0xa9, 0x3d,
  0x13, 0x33, 0xfd, 0xbd, 0x35, 0xbf, 0xae, 0xbd, 0x05, 0xd7, 0xe6, 0x3d,
  0x6d, 0x4d, 0x81, 0x3d, 0x0b, 0x04, 0xd7, 0xbc, 0x56, 0x24, 0xce, 0x3c,
  0x6b, 0x84, 0xd1, 0x3c, 0x65, 0x65, 0x15, 0xbe, 0xcf, 0x06, 0x75, 0xbd,
  0xb4, 0xf9, 0xdb, 0xbd, 0x15, 0x1a, 0x1e, 0xbe, 0x41, 0x25, 0x4b, 0xbd,
  0xd0, 0x0b, 0xfb, 0xbd, 0x97, 0x9f, 0xb4, 0xbd, 0xc4, 0x69, 0xe3, 0x3d,
  0x67, 0xb4, 0x16, 0x3e, 0x07, 0x98, 0xa1, 0x3d, 0x79, 0x00, 0x18, 0x3b,
  0x40, 0x03, 0xbd, 0x3c, 0xfd, 0xec, 0x21, 0x3e, 0xe8, 0x0e, 0xeb, 0x3c,
  0x9d, 0x13, 0x57, 0xbd, 0x96, 0x2b, 0x9c, 0xbc, 0x39, 0xa3, 0x8a, 0xbd,
  0x9e, 0xcf, 0xcd, 0x3c, 0x17, 0x5d, 0x06, 0x3d, 0x2a, 0x98, 0xb2, 0xbc,
  0x47, 0x27, 0x22, 0xbe, 0x82, 0x67, 0x56, 0x3c, 0x9b, 0xf2, 0x5d, 0x3d,
  0xb0, 0x96, 0xcb, 0x3b, 0x8a, 0x6f, 0xac, 0x3d, 0x1d, 0xcd, 0x07, 0xbe,
  0xa5, 0xef, 0x0f, 0xbe, 0xe4, 0x64, 0x57, 0xbd, 0xfe, 0x59, 0xa2, 0xbd,
  0xa5, 0x22, 0xd3, 0xbd, 0x3e, 0x2c, 0x0a, 0xbe, 0x9e, 0x60, 0x8f, 0x3c,
  0x26, 0x37, 0xc2, 0x3d, 0xef, 0x10, 0xff, 0xbd, 0x44, 0xb7, 0xff, 0x3d,
  0x69, 0x75, 0xba, 0xbd, 0xda, 0xcb, 0x3f, 0x3d, 0xd1, 0xcb, 0x92, 0xbd,
  0x15, 0xa4, 0x09, 0xbe, 0xea, 0xe5, 0xe7, 0x3d, 0x60, 0x0c, 0xfb, 0xbd,
  0x89, 0xca, 0x1d, 0xbe, 0x7e, 0xeb, 0x66, 0x3b, 0xeb, 0xed, 0xaf, 0x3d,
  0x76, 0x6b, 0xaa, 0xbd, 0xa5, 0x37, 0x3f, 0x3d, 0xba, 0xc9, 0xe3, 0xbd,
  0xd1, 0x33, 0x62, 0x3b, 0x9f, 0xf2, 0x27, 0xbe, 0x87, 0xcc, 0xcc, 0x3d,
  0xd9, 0xb5, 0x0d, 0x3d, 0x67, 0x5b, 0xb4, 0x3d, 0x50, 0xcb, 0xc9, 0xbd,
  0xee, 0x1c, 0xc1, 0x3d, 0x34, 0x97, 0xfc, 0xbd, 0xc6, 0x18, 0x82, 0xbd,
  0xa9, 0x81, 0xf2, 0x3d, 0x04, 0xe7, 0x29, 0xbe, 0x99, 0x9f, 0x10, 0x3e,
  0x15, 0xa7, 0xe8, 0xbd, 0xb1, 0x07, 0x0c, 0x3b, 0x55, 0x02, 0x06, 0xbe,
  0x25, 0x95, 0x88, 0x3d, 0xc5, 0x78, 0x42, 0xbd, 0x2b, 0x0f, 0x02, 0x3d,
  0x27, 0xc3, 0xb2, 0xbd, 0xff, 0x84, 0xaa, 0xbd, 0x91, 0x93, 0xce, 0x3d,
  0x92, 0xd3, 0xb6, 0xbd, 0x92, 0xfe, 0x1b, 0x3d, 0x57, 0x83, 0xc7, 0xbd,
  0x92, 0x73, 0x09, 0xbe, 0xed, 0x8a, 0xd7, 0xbd, 0x56, 0xed, 0x96, 0x3d,
  0xaf, 0x6e, 0xb5, 0xbd, 0x44, 0x49, 0xdd, 0x3d, 0xa7, 0xbe, 0x1a, 0xbe,
  0xe6, 0x51, 0xf4, 0x3d, 0xf2, 0x96, 0xb9, 0xbd, 0x52, 0x05, 0xd4, 0x3d,
  0x4f, 0xa4, 0x76, 0x3b, 0x00, 0x10, 0xef, 0xbd, 0x33, 0xcc, 0xa5, 0xbd,
  0x13, 0x22, 0xdc, 0x3d, 0x6d, 0x0c, 0xf3, 0xbd, 0x4a, 0x2b, 0xbc, 0x3d,
  0x47, 0xcc, 0x83, 0xbd, 0x70, 0xdf, 0x22, 0xbe, 0x8e, 0x95, 0xb4, 0x3d,
  0x81, 0x67, 0x0c, 0x3d, 0x34, 0x0f, 0xe7, 0xbd, 0xdd, 0xec, 0xed, 0xbd,
  0x8f, 0xa6, 0x54, 0x3c, 0xcb, 0x28, 0x9a, 0xbd, 0x9b, 0x12, 0x90, 0xbd,
  0x2e, 0x47, 0xed, 0xbd, 0xad, 0x9b, 0x9d, 0x3d, 0xf0, 0xc0, 0xf3, 0xbd,
  0x8c, 0x2b, 0x05, 0xbe, 0x54, 0xa4, 0xf8, 0x3d, 0x84, 0x80, 0x33, 0xbe,
  0xe8, 0x9e, 0x9a, 0xbc, 0xfd, 0xf8, 0x0c, 0x3e, 0x21, 0xd0, 0x16, 0xbd,
  0x08, 0x94, 0xda, 0x3d, 0x77, 0xe3, 0xc4, 0xbd, 0xc2, 0xf0, 0x3f, 0xbc,
  0xe4, 0x5c, 0x5e, 0x3c, 0x75, 0x58, 0x13, 0xbe, 0x6e, 0x15, 0x16, 0xbe,
  0x1e, 0xf1, 0x32, 0x3a, 0x31, 0x88, 0x12, 0xbe, 0xe8, 0x1a, 0x4f, 0xbd,
  0xb6, 0xb0, 0xb3, 0xbd, 0xa3, 0x1d, 0x25, 0xbe, 0xee, 0x66, 0x87, 0xbc,
  0x1a, 0x16, 0xd8, 0xbd, 0x42, 0x29, 0x1b, 0x3e, 0xde, 0xa1, 0x81, 0xbd,
  0xdb, 0x51, 0x95, 0xbc, 0x6a, 0xb8, 0xd5, 0x3d, 0xc2, 0x74, 0x48, 0xbd,
  0xa2, 0x07, 0x1a, 0xbe, 0x3a, 0xe9, 0xc5, 0x39, 0xb5, 0xcf, 0xd6, 0x3d,
  0xd1, 0xf1, 0x8c, 0xbd, 0xc1, 0xfd, 0x2a, 0xbe, 0xe0, 0xa2, 0x83, 0x3d,
  0xe3, 0x1f, 0x08, 0xbe, 0x4d, 0x26, 0x1d, 0x3e, 0x69, 0xd0, 0x02, 0xbd,
  0x53, 0x5d, 0xde, 0xbd, 0xad, 0x90, 0x44, 0xbc, 0x48, 0xca, 0xc3, 0x3d,
  0xbf, 0x33, 0xdb, 0x3d, 0x7b, 0x84, 0x99, 0x3d, 0xec, 0x4a, 0x1a, 0xbe,
  0xf2, 0x29, 0x13, 0x3e, 0x83, 0xeb, 0xc3, 0x3d, 0x32, 0x8c, 0x26, 0x3c,
  0x7f, 0x28, 0xcc, 0x3d, 0xfe, 0xa9, 0x5d, 0xbe, 0xdc, 0x53, 0xf8, 0x3d,
  0x44, 0x12, 0x69, 0xbd, 0x30, 0xb5, 0xf2, 0xbd, 0x19, 0x6b, 0x73, 0xbd,
  0x79, 0x84, 0xae, 0xbd, 0x3e, 0x15, 0x96, 0x3d, 0x6b, 0xa2, 0x95, 0x3e,
  0xb2, 0xa8, 0xd1, 0xbd, 0x4e, 0x2c, 0x03, 0xbe, 0x7d, 0x50, 0xe1, 0xbd,
  0x79, 0x9a, 0x1e, 0xbe, 0x1e, 0x82, 0x54, 0x3d, 0x02, 0xa4, 0xae, 0xbe,
  0xa0, 0x0b, 0xcd, 0xbd, 0xe9, 0xd4, 0x62, 0x3e, 0xeb, 0xb2, 0x44, 0xbe,
  0x76, 0x6f, 0xdc, 0x3d, 0x67, 0xab, 0x81, 0xbc, 0xe6, 0xbf, 0x0f, 0x3e,
  0x11, 0x8e, 0x2c, 0x3e, 0xb5, 0x34, 0xfb, 0xbb, 0xa5, 0xe6, 0x5c, 0x3e,
  0x45, 0xef, 0x2a, 0x3e, 0xf3, 0x71, 0x02, 0xbd, 0xd6, 0xf5, 0xaa, 0x3d,
  0xe5, 0x92, 0x25, 0x3e, 0x2d, 0xb4, 0x18, 0x3e, 0xf6, 0x1a, 0xed, 0x3d,
  0xe3, 0x92, 0x32, 0x3d, 0x53, 0x58, 0x8d, 0x3d, 0x38, 0xaa, 0x31, 0x3e,
  0xea, 0x3e, 0xd7, 0x3d, 0xff, 0xb4, 0xec, 0xbd, 0xd0, 0xd3, 0x26, 0xbe,
  0xe2, 0x49, 0xbc, 0xbd, 0xfc, 0x40, 0x16, 0xbd, 0x8c, 0xdd, 0x1a, 0xbe,
  0x38, 0xe4, 0x05, 0xbe, 0xa2, 0x6c, 0xae, 0x3d, 0x18, 0x54, 0x93, 0x3d,
  0x7a, 0x2d, 0x3b, 0xbd, 0xab, 0x99, 0x0e, 0x3d, 0x98, 0x11, 0x8f, 0x3d,
  0x2e, 0xe7, 0x0b, 0xbe, 0x41, 0xdd, 0xa8, 0x3d, 0x7e, 0x36, 0xa5, 0xbd,
  0x49, 0xd0, 0x83, 0x3c, 0xde, 0x40, 0x4b, 0xbe, 0x0d, 0x50, 0x8e, 0xbe,
  0x9c, 0x40, 0x22, 0xbb, 0x96, 0x3e, 0x7f, 0xbb, 0x02, 0x59, 0x1e, 0x3e,
  0xdc, 0x77, 0xfd, 0x3c, 0xd6, 0xd4, 0xfb, 0xbd, 0xa9, 0xff, 0x5f, 0xbe,
  0xeb, 0x2e, 0xf2, 0x3d, 0x70, 0x9e, 0x45, 0xbd, 0xa8, 0x96, 0xb5, 0xbd,
  0x72, 0x73, 0xcb, 0xbb, 0x41, 0xd4, 0x3a, 0xbd, 0xa4, 0x60, 0xd2, 0x3c,
  0x79, 0xfb, 0x3c, 0xbe, 0xf2, 0x87, 0x90, 0xbe, 0x4f, 0x74, 0x9f, 0x3e,
  0x98, 0x04, 0x87, 0x3d, 0x9a, 0x04, 0x00, 0xbc, 0x3e, 0x4e, 0x84, 0x3e,
  0x36, 0x19, 0x3c, 0xbd, 0x62, 0x29, 0x8c, 0x3e, 0x49, 0x2b, 0x3f, 0x3e,
  0xc8, 0x01, 0xdf, 0xbd, 0xb2, 0x04, 0x71, 0x3a, 0x83, 0xd6, 0x5c, 0xbe,
  0xee, 0xa0, 0xb6, 0x3d, 0x9f, 0x3b, 0x4f, 0x3e, 0x24, 0x0e, 0x45, 0x3e,
  0x2d, 0xdf, 0x0b, 0x3e, 0x75, 0x9a, 0xc8, 0xbd, 0x52, 0xb7, 0x81, 0xbd,
  0x53, 0x77, 0xb9, 0xbd, 0xa3, 0x7f, 0x04, 0xbe, 0x91, 0xbf, 0x48, 0xbd,
  0x0a, 0x74, 0x85, 0xbc, 0xbb, 0x39, 0x0c, 0xbd, 0xa3, 0xfa, 0x7f, 0xbd,
  0x75, 0xab, 0x9a, 0xbd, 0x73, 0x52, 0xa9, 0xbe, 0x6b, 0x22, 0xad, 0xbd,
  0x6b, 0xc7, 0x7f, 0xbd, 0x99, 0x1c, 0xa0, 0x3d, 0x11, 0x74, 0x8a, 0x3d,
  0x19, 0xe0, 0xd5, 0x3d, 0x68, 0x6d, 0x10, 0x3e, 0xbf, 0x9b, 0x82, 0x3d,
  0x96, 0x89, 0xb4, 0x3d, 0xb7, 0x3b, 0x82, 0x3c, 0xbf, 0x41, 0xdb, 0x3d,
  0x8c, 0x6c, 0x39, 0xbd, 0xa5, 0x8e, 0x11, 0x3e, 0x63, 0x7b, 0x85, 0xbd,
  0x72, 0x4c, 0x1e, 0x3e, 0x2c, 0x4c, 0xa1, 0xbd, 0x36, 0x2e, 0xc7, 0xbd,
  0xd0, 0x1b, 0xe1, 0xbd, 0xbc, 0x18, 0x21, 0xbd, 0x73, 0xdc, 0xab, 0x3d,
  0xc1, 0x1d, 0xc2, 0xbd, 0xf2, 0x1e, 0xdb, 0x3c, 0xa4, 0x38, 0x8b, 0x3c,
  0x3b, 0xa9, 0x4f, 0xbe, 0x3a, 0xba, 0x0b, 0xbe, 0x10, 0x19, 0xa0, 0x3d,
  0xca, 0xad, 0x46, 0x3e, 0x19, 0xb9, 0xd6, 0x3d, 0x62, 0xf7, 0xaa, 0x3d,
  0xb3, 0x35, 0x32, 0x3e, 0xfd, 0x63, 0x44, 0x3e, 0x43, 0x2b, 0x34, 0x3e,
  0x71, 0x65, 0x58, 0x3d, 0x0c, 0x4f, 0xef, 0x3d, 0xf7, 0x62, 0x67, 0xbe,
  0x9a, 0xd8, 0xbb, 0x3d, 0xf1, 0x35, 0x72, 0xbb, 0xc6, 0x39, 0x63, 0xbd,
  0x6f, 0xd0, 0xe2, 0xbc, 0xf3, 0x3e, 0xb8, 0x3d, 0x96, 0x51, 0xe4, 0x3d,
  0xac, 0x26, 0x88, 0x3d, 0x1e, 0xc4, 0xa6, 0xbd, 0xff, 0xd7, 0x2f, 0x3e,
  0x39, 0x11, 0x2c, 0x3e, 0x25, 0xdc, 0x0c, 0xbd, 0x88, 0xba, 0x5d, 0xbe,
  0x0b, 0xed, 0x03, 0xbb, 0x81, 0x1b, 0x82, 0xbd, 0x6d, 0x75, 0x6e, 0xbd,
  0x76, 0x31, 0x23, 0x3e, 0x6a, 0x7b, 0x9c, 0xbd, 0xa4, 0x3a, 0x61, 0xbe,
  0xcb, 0x77, 0x28, 0x3d, 0x39, 0x6c, 0xac, 0xbc, 0x1b, 0xfe, 0x02, 0xbe,
  0x97, 0x63, 0x77, 0xbd, 0xdb, 0xc9, 0x85, 0xbc, 0xc4, 0x5c, 0x08, 0x3e,
  0x67, 0xde, 0xff, 0x3c, 0x26, 0xa7, 0x16, 0xbe, 0x52, 0x96, 0x8b, 0x3d,
  0x98, 0x56, 0xe4, 0xbc, 0xa1, 0x41, 0x11, 0x3d, 0x86, 0x99, 0x7d, 0x3d,
  0x4f, 0xff, 0x86, 0x3d, 0x64, 0xa2, 0xee, 0x3d, 0x40, 0xb7, 0x5f, 0x3e,
  0x95, 0xd3, 0x10, 0x3e, 0x1f, 0x81, 0x34, 0x3e, 0x41, 0x6f, 0x12, 0x3e,
  0xcd, 0x28, 0x4e, 0x3e, 0xac, 0xcb, 0xa4, 0xbd, 0x25, 0xf0, 0x84, 0xbd,
  0x8c, 0xa1, 0x18, 0x3e, 0x0d, 0x0a, 0x0d, 0xbe, 0x59, 0x78, 0xde, 0x3d,
  0x7c, 0x9f, 0x8e, 0x3d, 0xc2, 0xf6, 0x9f, 0xbd, 0x9f, 0xeb, 0x20, 0x3d,
  0xca, 0xc7, 0x4e, 0xbe, 0x20, 0x7f, 0x51, 0xbc, 0xf5, 0xc4, 0x63, 0xbe,
  0x33, 0x7b, 0x23, 0xbe, 0xea, 0xa9, 0xad, 0xbd, 0x95, 0xc4, 0xac, 0xbd,
  0x2b, 0x85, 0xd0, 0x3d, 0x77, 0x99, 0xac, 0x3d, 0xfe, 0x0c, 0x33, 0xbe,
  0xe4, 0x31, 0x84, 0x3c, 0xb6, 0x31, 0x6b, 0x3e, 0xd9, 0x2f, 0xac, 0x3d,
  0xfa, 0x23, 0xa1, 0xbd, 0xad, 0x12, 0x11, 0x3e, 0xb3, 0xba, 0xf5, 0x3d,
  0xb1, 0xf8, 0x6a, 0xbd, 0xdb, 0x22, 0xc4, 0x3b, 0xf3, 0xf2, 0xe1, 0x3c,
  0x9a, 0x59, 0x06, 0x3e, 0x77, 0x24, 0x42, 0xbe, 0x87, 0x30, 0xd0, 0x3d,
  0x4c, 0x20, 0x43, 0x3d, 0xc0, 0x4e, 0x5d, 0xbd, 0x28, 0x14, 0x40, 0xbb,
  0xaa, 0x08, 0x17, 0xbe, 0xfb, 0xab, 0x41, 0x3e, 0xa2, 0x8d, 0xec, 0xbd,
  0xcf, 0xf2, 0xa5, 0xbd, 0x83, 0x0f, 0xe6, 0xbd, 0xa9, 0xd7, 0x4f, 0xbd,
  0xb8, 0x77, 0xfb, 0x3d, 0xe2, 0x4f, 0x40, 0x3d, 0xef, 0x46, 0x22, 0xbe,
  0x98, 0x29, 0x2a, 0x3e, 0x2f, 0x76, 0x57, 0x3e, 0xe5, 0x68, 0x55, 0xbd,
  0x66, 0x38, 0xc8, 0xbc, 0x62, 0x09, 0xee, 0x3d, 0x90, 0x68, 0x53, 0x3d,
  0xdd, 0x4d, 0xbb, 0x3c, 0x90, 0xb0, 0x23, 0x3e, 0x65, 0x2b, 0x2d, 0x3e,
  0x5b, 0x35, 0x52, 0xbe, 0x7d, 0xba, 0x1a, 0x3d, 0x7b, 0x7d, 0x47, 0x3e,
  0x6b, 0x2b, 0x43, 0x3e, 0xbb, 0x9a, 0x25, 0xba, 0x71, 0x4f, 0x48, 0x3d,
  0xd3, 0x8d, 0x2d, 0xbd, 0xce, 0x83, 0xcd, 0x3d, 0x7b, 0x71, 0x14, 0x3c,
  0xe4, 0xad, 0x1a, 0x3e, 0x7a, 0xf7, 0xc4, 0xbd, 0x4b, 0xce, 0xdd, 0x3d,
  0x84, 0xc4, 0x82, 0x3e, 0x2e, 0xf1, 0x3e, 0xbd, 0x85, 0xed, 0xd1, 0x3d,
  0xf5, 0x65, 0x3f, 0x3e, 0xfc, 0x7c, 0xdd, 0x3b, 0x4a, 0x81, 0x9e, 0x3c,
  0x49, 0xac, 0x99, 0x3c, 0xff, 0x97, 0x15, 0xbb, 0xcb, 0xc8, 0x84, 0x3e,
  0xcc, 0x02, 0xbe, 0x3c, 0x98, 0xc4, 0x28, 0xbd, 0x0e, 0x80, 0x98, 0xbd,
  0xdc, 0x56, 0x03, 0x3c, 0xdc, 0x17, 0x4f, 0x3c, 0xf1, 0xf3, 0xab, 0x3d,
  0x20, 0x13, 0x17, 0x3d, 0xc3, 0xae, 0x53, 0xbc, 0xa1, 0x73, 0x1f, 0x3e,
  0xb8, 0x52, 0x88, 0x3c, 0x7c, 0xff, 0xc7, 0xbc, 0x1e, 0xbf, 0x65, 0xbd,
  0xf6, 0x86, 0x72, 0xbd, 0x81, 0x58, 0x15, 0x3e, 0x84, 0x76, 0xac, 0x3d,
  0x83, 0x5a, 0xf9, 0x3d, 0xf9, 0x85, 0x1b, 0x3e, 0x21, 0x84, 0x6e, 0xbc,
  0xf0, 0x87, 0x98, 0xbd, 0xf9, 0x12, 0x60, 0x3d, 0xd0, 0x5f, 0xf5, 0x3d,
  0x0f, 0x9b, 0xfe, 0x3d, 0xbb, 0x28, 0x8b, 0x3d, 0xa9, 0xfc, 0x1a, 0x3e,
  0x66, 0xfc, 0x92, 0xbd, 0x7d, 0x23, 0x52, 0x3e, 0x5b, 0x08, 0x2a, 0xbd,
  0x99, 0x91, 0x25, 0xbe, 0x51, 0x27, 0x50, 0x3e, 0x47, 0xc5, 0x11, 0xbe,
  0xc8, 0xe9, 0x53, 0xbe, 0x30, 0xc8, 0x7e, 0x3d, 0x5b, 0x95, 0x0d, 0xbe,
  0x93, 0x63, 0x56, 0x3e, 0x40, 0xba, 0x72, 0xbe, 0xca, 0xea, 0xdc, 0xbd,
  0xe6, 0xcc, 0x81, 0x3d, 0x5a, 0xba, 0x9d, 0xbd, 0xb8, 0xa6, 0x43, 0xbe,
  0x1b, 0x0f, 0xf9, 0xbc, 0x7a, 0xc0, 0x93, 0xbd, 0x50, 0xa1, 0x30, 0x3d,
  0xc0, 0x2f, 0x86, 0xbe, 0xb1, 0xca, 0xe2, 0xbc, 0xf0, 0x42, 0x3d, 0xbe,
  0x2b, 0x95, 0xa3, 0x3d, 0x1c, 0x03, 0xc8, 0xbd, 0xf7, 0xd1, 0xdb, 0xbd,
  0x34, 0x9b, 0xb5, 0x3b, 0x69, 0x89, 0x1b, 0x3d, 0x38, 0x46, 0xb7, 0x3c,
  0x21, 0xd1, 0x12, 0xbe, 0xa0, 0xe2, 0x6b, 0xbe, 0x8e, 0xee, 0x76, 0x3e,
  0x4e, 0xb8, 0x12, 0xbe, 0xdc, 0xd4, 0x6b, 0xbd, 0xa9, 0x1b, 0x2a, 0x3e,
  0x84, 0x53, 0x4b, 0x3d, 0x9f, 0x02, 0xf1, 0x3a, 0x37, 0x0f, 0x4e, 0xbe,
  0x1e, 0xfd, 0x6d, 0xbd, 0xb0, 0x92, 0x4e, 0xbe, 0xca, 0x5a, 0x38, 0x3e,
  0xe2, 0x03, 0xa9, 0xbd, 0xf7, 0xb2, 0x2f, 0x3d, 0x0a, 0xc6, 0x03, 0xbe,
  0x85, 0x99, 0x98, 0x3c, 0x14, 0xc3, 0x05, 0x3e, 0x89, 0x61, 0x36, 0x3e,
  0xa9, 0x1d, 0xaf, 0xbd, 0xf3, 0xfa, 0x3f, 0x3e, 0x06, 0xe4, 0xd2, 0x3c,
  0xf7, 0xd0, 0x69, 0xbd, 0xaf, 0xec, 0x28, 0xbd, 0x8b, 0x6d, 0xe5, 0x3d,
  0x63, 0xae, 0x70, 0x3e, 0x4f, 0xef, 0xeb, 0xbd, 0xab, 0x11, 0x19, 0x3e,
  0xe7, 0xc7, 0xd4, 0xbd, 0x0a, 0xe0, 0x67, 0x3d, 0xf1, 0x5f, 0x45, 0xbe,
  0x34, 0x96, 0x1a, 0xbe, 0xde, 0xfd, 0x1c, 0xba, 0xca, 0xf2, 0xa8, 0xbd,
  0xe9, 0x97, 0x0b, 0xbe, 0x58, 0x36, 0xe8, 0x3d, 0x3a, 0x14, 0xc5, 0xbc,
  0x1c, 0x9e, 0x24, 0x3c, 0x0d, 0x6e, 0xae, 0x3d, 0x02, 0x9c, 0x14, 0xbe,
  0xc6, 0x85, 0xab, 0x3d, 0xce, 0x08, 0xd6, 0x3c, 0x4d, 0x27, 0x86, 0x3d,
  0xc0, 0x76, 0xc3, 0x3d, 0x22, 0x3a, 0xd4, 0xbd, 0x36, 0xe4, 0xd0, 0x3d,
  0xff, 0xcd, 0x96, 0x3c, 0x3d, 0x14, 0x2f, 0x3d, 0x56, 0xdb, 0x85, 0x3c,
  0xb9, 0x0a, 0xb7, 0x3d, 0x7a, 0x80, 0x7c, 0xbe, 0x40, 0x6b, 0x70, 0x3e,
  0x89, 0x1c, 0x90, 0xbd, 0x7b, 0x20, 0x05, 0x3e, 0x67, 0x84, 0x0a, 0xbe,
  0x57, 0x10, 0x44, 0x3e, 0xc8, 0x9b, 0xe6, 0xbd, 0xb0, 0x0f, 0xf8, 0xbd,
  0x02, 0x23, 0x4b, 0xbe, 0x5b, 0xe0, 0x82, 0x3e, 0xfe, 0x14, 0x25, 0x3e,
  0x40, 0x9d, 0x89, 0x3d, 0x8f, 0x87, 0x13, 0xbb, 0x45, 0x4d, 0x48, 0xbd,
  0xe5, 0xe7, 0x2b, 0x3e, 0x33, 0x44, 0x80, 0x3d, 0x66, 0xbc, 0xb5, 0xbd,
  0xa7, 0x34, 0x3b, 0xbe, 0x2c, 0x3f, 0x23, 0x3e, 0x15, 0x68, 0xe7, 0xbc,
  0x8a, 0xe4, 0x76, 0x3d, 0x2f, 0xfb, 0x2f, 0xbe, 0xb8, 0x30, 0x32, 0x3e,
  0xce, 0x34, 0x32, 0xbd, 0x09, 0x4f, 0xcb, 0xbd, 0xc4, 0x98, 0x88, 0x3d,
  0x11, 0xc0, 0x3f, 0xbd, 0xe9, 0x82, 0xd4, 0xbd, 0x9a, 0x25, 0xcf, 0x3d,
  0xd9, 0xf9, 0x3d, 0xbd, 0x76, 0xd8, 0x74, 0x3b, 0xe8, 0x2a, 0x74, 0xbe,
  0x8a, 0xb3, 0x2d, 0x3e, 0x09, 0xec, 0x42, 0xbd, 0xbd, 0x0a, 0x9e, 0x3d,
  0xc5, 0x63, 0xb4, 0xbd, 0xb9, 0xee, 0xf3, 0xbd, 0x5a, 0x72, 0x91, 0xbd,
  0x55, 0x68, 0x18, 0xbd, 0x15, 0x07, 0x89, 0x3c, 0x2d, 0x1a, 0xfe, 0xbc,
  0x0e, 0x84, 0xbf, 0x3b, 0xbf, 0x87, 0x66, 0x3b, 0x69, 0xfa, 0xd2, 0x3d,
  0x5e, 0x5e, 0x87, 0xbc, 0x05, 0xd7, 0x27, 0xbd, 0x4c, 0x94, 0xb5, 0x3d,
  0xd3, 0x31, 0x62, 0x3c, 0xea, 0x27, 0xc8, 0x3c, 0x55, 0x8a, 0x0d, 0x3e,
  0x4e, 0x2b, 0x53, 0xbe, 0x56, 0x96, 0x20, 0x3d, 0x76, 0xed, 0xfb, 0xbd,
  0x62, 0xf8, 0x81, 0xbd, 0x8e, 0x20, 0x18, 0x3e, 0xc3, 0x35, 0x3b, 0xbd,
  0xcf, 0x2d, 0x82, 0x3d, 0x12, 0xa5, 0xd8, 0x3d, 0xa1, 0x78, 0x08, 0x3e,
  0x7d, 0x9d, 0x59, 0x3d, 0xb0, 0x7c, 0xca, 0x3d, 0x5f, 0x9e, 0xee, 0x3c,
  0x0a, 0x6b, 0x3c, 0x3e, 0x6d, 0x71, 0xe3, 0x3d, 0x7a, 0xd6, 0x3a, 0x3d,
  0x6c, 0x52, 0x29, 0xbe, 0x99, 0xb8, 0x74, 0xbd, 0x91, 0x6a, 0xe5, 0x3d,
  0xfa, 0xc3, 0xdc, 0x3d, 0x2b, 0xb3, 0x1a, 0xbe, 0x8d, 0x2d, 0x06, 0x3e,
  0x7f, 0xb8, 0xcc, 0x3d, 0xa7, 0x11, 0xb1, 0x3e, 0xea, 0x71, 0x80, 0x3c,
  0x2c, 0x5b, 0xec, 0x3d, 0x96, 0xe3, 0x7a, 0x3d, 0xbc, 0xa9, 0xd3, 0xbd,
  0xf3, 0x98, 0x38, 0xbd, 0x99, 0xa7, 0x02, 0x3c, 0xbc, 0xa6, 0xa7, 0x3d,
  0x8b, 0x80, 0x47, 0x3d, 0x61, 0xbc, 0x58, 0x3e, 0xdd, 0xfe, 0xc3, 0xbd,
  0xc2, 0x8e, 0x25, 0x3e, 0x60, 0x90, 0xbc, 0xbd, 0x86, 0xaf, 0x26, 0x3a,
  0x75, 0x0c, 0x3e, 0x3e, 0x1d, 0x7c, 0x13, 0x3d, 0x2a, 0x34, 0x92, 0xbd,
  0xa5, 0xd0, 0x25, 0xbe, 0xf2, 0xe3, 0xc6, 0x3c, 0x3d, 0x2e, 0x7f, 0xbd,
  0xa3, 0xf2, 0x33, 0xbe, 0xb8, 0xa5, 0x2e, 0xbd, 0x33, 0x10, 0x34, 0x3e,
  0x93, 0x47, 0x1e, 0xbe, 0x8a, 0xb5, 0xc9, 0x3d, 0x4b, 0xf6, 0xe6, 0xbd,
  0x85, 0xf6, 0xa3, 0x3d, 0x27, 0x67, 0x6c, 0x3d, 0x56, 0x0f, 0xc0, 0x3d,
  0x47, 0xfa, 0xd6, 0x3d, 0x23, 0x46, 0xe7, 0xbc, 0x51, 0xc7, 0x1e, 0xbe,
  0x5b, 0xd3, 0x41, 0xbd, 0xcc, 0x50, 0xb9, 0xbd, 0x17, 0xf5, 0x4d, 0xbd,
  0xc4, 0xc4, 0xa1, 0x3c, 0xf8, 0x5c, 0x28, 0xbe, 0x3d, 0x8e, 0x1b, 0x3e,
  0x2a, 0x21, 0x86, 0xbe, 0x8c, 0xbe, 0x0f, 0xbd, 0xc2, 0x00, 0xe0, 0x3b,
  0x6c, 0x40, 0x96, 0xbd, 0xa6, 0xfc, 0xf2, 0x3c, 0x1e, 0x69, 0xdc, 0x3d,
  0x89, 0xb5, 0x5d, 0xbe, 0xe7, 0x8b, 0x64, 0x3e, 0x56, 0x76, 0x0e, 0xbe,
  0x7b, 0xf3, 0xa3, 0xbd, 0xac, 0x34, 0x40, 0xbd, 0xce, 0xc9, 0x98, 0xbc,
  0xe3, 0xb4, 0x3f, 0x3e, 0x4f, 0xee, 0x91, 0xbd, 0x4d, 0x5b, 0xe2, 0x3d,
  0xce, 0xe7, 0xd8, 0x3d, 0x36, 0x75, 0x04, 0xbe, 0xec, 0x26, 0x3b, 0xbe,
  0x24, 0x9e, 0x4e, 0x3e, 0x3d, 0x3e, 0xcd, 0xbd, 0x40, 0xb1, 0xc3, 0xbd,
  0xf5, 0x3d, 0x6d, 0xbe, 0x68, 0x9c, 0x44, 0xbd, 0x41, 0x1b, 0x76, 0xbd,
  0xc1, 0xfb, 0x1f, 0xbe, 0x24, 0x28, 0x8c, 0x3d, 0x7a, 0x81, 0x1a, 0x3d,
  0x80, 0xa2, 0x3e, 0x3d, 0x08, 0x75, 0x9a, 0xbd, 0x36, 0x06, 0xa2, 0xbe,
  0x53, 0xe6, 0x2a, 0x3e, 0xdb, 0xce, 0xb5, 0x3c, 0x2b, 0x8e, 0x77, 0x3d,
  0xf1, 0x4e, 0x20, 0x3e, 0x1e, 0xd6, 0xac, 0x3b, 0xa5, 0xc6, 0x09, 0x3d,
  0x6e, 0x72, 0x4d, 0x3e, 0xd6, 0x4b, 0x36, 0x3d, 0x1f, 0x79, 0x96, 0xbd,
  0x8a, 0xb9, 0x7a, 0x3d, 0x11, 0xaa, 0x01, 0xbc, 0x9c, 0x20, 0x9e, 0xba,
  0x39, 0xe3, 0x8e, 0x3c, 0xc2, 0x09, 0xe6, 0xbd, 0xb3, 0xbe, 0x72, 0x3e,
  0xe4, 0x2e, 0x95, 0xbd, 0x94, 0xf7, 0x1e, 0x3d, 0x9e, 0x6f, 0x9c, 0x3d,
  0x6a, 0x29, 0x7f, 0x3d, 0xa6, 0xa6, 0x71, 0xbc, 0x92, 0xc4, 0x40, 0x3e,
  0xff, 0xc4, 0x1f, 0x3e, 0xd6, 0x68, 0xea, 0xbc, 0xd7, 0xf6, 0xc4, 0x3d,
  0x4c, 0x37, 0xa5, 0xbd, 0x9c, 0x06, 0x1f, 0xbe, 0x9c, 0x3b, 0x50, 0x3e,
  0x36, 0x54, 0x1e, 0x3e, 0x52, 0xac, 0xf1, 0x3d, 0x61, 0x05, 0x35, 0xbe,
  0xec, 0x9b, 0xf3, 0xbb, 0xe9, 0xbf, 0x93, 0xbd, 0x39, 0xce, 0xc4, 0xbd,
  0xb5, 0x81, 0xa7, 0xbd, 0xf6, 0xf4, 0x37, 0xbe, 0xea, 0xbe, 0x1a, 0x3e,
  0xcd, 0x5c, 0xad, 0xbd, 0x31, 0xdc, 0xf9, 0xbc, 0x2f, 0xbc, 0xa9, 0xbd,
  0x08, 0x2d, 0x41, 0xbe, 0xe6, 0x25, 0xc9, 0x3d, 0x35, 0xd5, 0x97, 0xbd,
  0xb5, 0x1d, 0x38, 0xbe, 0x6d, 0xa0, 0xc8, 0xbd, 0x9b, 0x86, 0x8e, 0x3d,
  0xbb, 0xf7, 0xbe, 0xbd, 0x3c, 0xe0, 0x9b, 0x3d, 0x84, 0xce, 0x42, 0xbe,
  0x24, 0xd4, 0xde, 0x3d, 0x8d, 0x2f, 0xb2, 0x3d, 0xe6, 0xe2, 0xb8, 0xbd,
  0x08, 0x8e, 0x01, 0x3e, 0x9a, 0x91, 0x7e, 0xbe, 0x08, 0xcf, 0xf8, 0xbd,
  0xcb, 0x62, 0x11, 0x3d, 0x84, 0x52, 0x09, 0xbe, 0x6e, 0x64, 0x92, 0xbd,
  0x5e, 0x3e, 0x1f, 0x3b, 0xa7, 0xe0, 0xb1, 0x3d, 0x79, 0xf9, 0x2c, 0xbd,
  0x0a, 0x90, 0x31, 0x3d, 0xe1, 0x9b, 0xc0, 0xbd, 0xcf, 0xb4, 0xf0, 0x3c,
  0xa9, 0xdd, 0x30, 0xbd, 0x31, 0x86, 0x0f, 0x3e, 0x91, 0xe4, 0x8c, 0x3d,
  0xa0, 0xcf, 0x10, 0x3d, 0x95, 0xbb, 0x63, 0x3d, 0xfe, 0x8c, 0x6e, 0xbe,
  0xbf, 0xf0, 0x0d, 0x3d, 0x22, 0x3c, 0xdb, 0x3d, 0xa7, 0x62, 0x88, 0xbe,
  0xdc, 0x6f, 0x07, 0xbd, 0xf4, 0x40, 0xbf, 0x3d, 0xbc, 0xa1, 0xa7, 0xbc,
  0xff, 0xa6, 0x3c, 0x3d, 0xf7, 0x2f, 0x12, 0xbe, 0x81, 0x2a, 0x0a, 0x3e,
  0x4b, 0xad, 0x98, 0xbd, 0xae, 0x3a, 0x50, 0x3d, 0x3a, 0x84, 0x1d, 0x3e,
  0xcc, 0x92, 0xb8, 0xbd, 0xf5, 0xce, 0xf3, 0x3b, 0xfc, 0xbb, 0x07, 0x3e,
  0xb3, 0xf6, 0x9c, 0x3d, 0xb9, 0xb6, 0xae, 0xbd, 0x52, 0xa4, 0x8e, 0xbb,
  0x63, 0xee, 0x4b, 0x3d, 0xb9, 0x20, 0x17, 0xbd, 0xb0, 0x4c, 0x89, 0x3d,
  0x40, 0xe9, 0x3b, 0xbd, 0x5c, 0x30, 0x8a, 0x3d, 0xec, 0x33, 0x23, 0x3d,
  0x95, 0x92, 0x4a, 0xbd, 0xfa, 0xdb, 0x4b, 0xbd, 0x62, 0xe3, 0x75, 0xbd,
  0x5f, 0xb5, 0x81, 0x3c, 0x3a, 0xb5, 0xdc, 0x3d, 0x7a, 0x30, 0x2d, 0xbd,
  0x69, 0x65, 0xfe, 0x3d, 0x5d, 0x04, 0x0a, 0x3e, 0x11, 0x8d, 0x4a, 0xbe,
  0x75, 0x49, 0x01, 0xbd, 0x5d, 0x0a, 0x70, 0xbb, 0x67, 0x23, 0x6d, 0xbd,
  0xab, 0x94, 0x6b, 0xbe, 0x49, 0xad, 0x5f, 0x3e, 0x74, 0x01, 0x20, 0xbe,
  0xf8, 0x03, 0x2e, 0x3d, 0x16, 0x8b, 0x4c, 0xbe, 0xbf, 0x01, 0xde, 0x3c,
  0x9f, 0xc5, 0x30, 0x3e, 0x3f, 0xb8, 0x14, 0x3e, 0xf2, 0xb8, 0xcb, 0xbd,
  0xa5, 0x93, 0xe2, 0xbc, 0x4d, 0x3e, 0x8e, 0x3d, 0xa9, 0xfa, 0xa1, 0xbd,
  0xc1, 0x1c, 0xe3, 0x3d, 0xe1, 0x23, 0x98, 0xbc, 0xea, 0xde, 0x51, 0x3e,
  0x11, 0xe3, 0x0e, 0x3e, 0xef, 0xc9, 0x9c, 0x3d, 0x9b, 0x99, 0x14, 0xbe,
  0xa1, 0xfc, 0x12, 0xbe, 0xbf, 0xbc, 0x89, 0x3e, 0x36, 0x47, 0xdb, 0x3c,
  0x66, 0xd9, 0x24, 0xbe, 0x29, 0xd6, 0xf0, 0x3d, 0xe4, 0xaf, 0x38, 0xbe,
  0x98, 0xa3, 0x14, 0xbe, 0xba, 0xb8, 0xe5, 0xbd, 0xe0, 0x65, 0x14, 0xbe,
  0x96, 0xde, 0x22, 0x3e, 0xde, 0x79, 0xd2, 0x3d, 0xbd, 0x9f, 0x29, 0xbe,
  0x81, 0x1a, 0x0f, 0x3e, 0x07, 0x7e, 0x85, 0x3d, 0x95, 0x60, 0x29, 0x3e,
  0x4c, 0xc9, 0xee, 0xbc, 0xc7, 0xc3, 0x62, 0x3d, 0xc3, 0x35, 0xba, 0xbd,
  0x56, 0x85, 0xc6, 0xbd, 0xb8, 0x1b, 0x14, 0xbe, 0xcd, 0x57, 0x12, 0x3d,
  0x62, 0xb4, 0x3a, 0x3e, 0xb7, 0xb2, 0x06, 0x3e, 0x46, 0xa1, 0x0a, 0xbe,
  0x5f, 0x54, 0xf3, 0x3d, 0xd7, 0xbe, 0x64, 0x3e, 0x29, 0xa7, 0x34, 0xbc,
  0x04, 0x83, 0x26, 0xbc, 0x49, 0x3e, 0x5d, 0x3d, 0x64, 0x10, 0x25, 0xbe,
  0xf8, 0x58, 0xb5, 0xbd, 0x2d, 0x49, 0xc3, 0xbd, 0x3f, 0xd0, 0x0e, 0xbe,
  0x62, 0xe6, 0xec, 0xbd, 0x71, 0x95, 0x83, 0xbc, 0xd9, 0xcc, 0xf8, 0x3d,
  0x05, 0xef, 0x02, 0xbc, 0x24, 0xda, 0xce, 0x3c, 0x03, 0x62, 0x10, 0xbe,
  0x6c, 0xce, 0xbf, 0x3d, 0x23, 0x20, 0x93, 0x3b, 0x65, 0x1d, 0xc0, 0x3d,
  0x97, 0x0a, 0xde, 0x3d, 0x19, 0x4b, 0xda, 0x3d, 0xe7, 0xf0, 0x32, 0x3e,
  0x01, 0xf1, 0x87, 0xbd, 0x3c, 0x78, 0xca, 0xbc, 0xc9, 0x2f, 0x3f, 0xbe,
  0xdb, 0xeb, 0x4a, 0xbc, 0x82, 0xb2, 0x32, 0xbd, 0x73, 0xf2, 0x96, 0xbd,
  0x15, 0xdb, 0xb7, 0xbd, 0xea, 0x2d, 0x46, 0xbe, 0x74, 0xdf, 0xe0, 0x3d,
  0x83, 0x50, 0x66, 0x3d, 0x6d, 0x6d, 0xc6, 0x3d, 0xd0, 0x40, 0x88, 0x3a,
  0x78, 0xaf, 0x94, 0x3d, 0x8f, 0x46, 0x85, 0xbd, 0xc9, 0xf1, 0xa5, 0xbd,
  0xc8, 0x0e, 0x15, 0x3e, 0x20, 0xb0, 0x0b, 0x3d, 0x14, 0xac, 0x9a, 0x3a,
  0xa7, 0x16, 0x3a, 0x3e, 0x79, 0xdc, 0x15, 0x3c, 0x42, 0xfd, 0x3b, 0xbd,
  0xb3, 0xac, 0xfe, 0xbd, 0x21, 0xc3, 0x81, 0xbd, 0x92, 0x35, 0x45, 0xbb,
  0x97, 0xb2, 0x22, 0x3e, 0x21, 0x2d, 0xa1, 0x3d, 0xae, 0x6c, 0x48, 0x3e,
  0x42, 0x3f, 0xcb, 0x3c, 0x38, 0xf0, 0x40, 0xbe, 0x69, 0x26, 0x65, 0x3e,
  0x59, 0xb9, 0x1f, 0x3e, 0x1c, 0xb7, 0x85, 0xbc, 0xec, 0x1f, 0x01, 0xbe,
  0xa5, 0x69, 0xeb, 0x3c, 0xa7, 0xfd, 0xa3, 0x3d, 0x40, 0xb7, 0x6e, 0x3e,
  0x50, 0x2f, 0xb1, 0x3c, 0x66, 0xf9, 0x6e, 0x3e, 0x46, 0x83, 0xb1, 0xbd,
  0x0e, 0x75, 0xff, 0x3c, 0xbc, 0xea, 0xbb, 0xbd, 0xda, 0x38, 0xfb, 0x3c,
  0x58, 0x47, 0xdb, 0x3d, 0x67, 0x0f, 0xd9, 0x3d, 0x6f, 0x66, 0xcb, 0xbd,
  0xe3, 0x82, 0x4d, 0xbe, 0x68, 0xfb, 0x89, 0xbd, 0x6d, 0x17, 0xa5, 0x3c,
  0xab, 0xd7, 0x09, 0xbe, 0x4b, 0x9b, 0xae, 0xbe, 0xb4, 0x89, 0x1e, 0xbe,
  0xd3, 0xe8, 0xe5, 0x3d, 0x2a, 0x6e, 0x6b, 0x3c, 0x12, 0x3a, 0xb7, 0x3d,
  0x16, 0x08, 0x98, 0xbd, 0x1e, 0xb6, 0x8a, 0x3e, 0xa8, 0x03, 0x88, 0x3d,
  0x8e, 0xdd, 0xeb, 0x3b, 0x40, 0x5f, 0x23, 0x3e, 0xd7, 0xf3, 0xb6, 0x3d,
  0xd2, 0xc3, 0x4a, 0x3c, 0xfb, 0x60, 0x86, 0x3e, 0x69, 0x2e, 0x5c, 0xbd,
  0x61, 0xaf, 0x38, 0x3e, 0x75, 0xee, 0xde, 0xbd, 0x74, 0x00, 0x9c, 0x3d,
  0x5a, 0x33, 0xb6, 0xbd, 0x70, 0x81, 0x8c, 0xbc, 0x2d, 0x94, 0x48, 0xbe,
  0xd1, 0x31, 0xb0, 0x3d, 0x0e, 0xae, 0xd0, 0xbd, 0x00, 0x47, 0xca, 0xbd,
  0x94, 0x05, 0x9c, 0xbd, 0x52, 0x30, 0x11, 0x3d, 0x49, 0xdf, 0x5c, 0xbe,
  0xbf, 0x01, 0x71, 0xbc, 0x78, 0x27, 0x6e, 0x3e, 0xe2, 0x64, 0xc2, 0x3b,
  0x8c, 0x7c, 0x2c, 0xbd, 0x44, 0x27, 0x4d, 0x3e, 0x85, 0xef, 0x02, 0x3c,
  0x33, 0xf9, 0x49, 0x3d, 0x1f, 0x7b, 0xd6, 0x3d, 0x49, 0xec, 0x86, 0x3d,
  0xa5, 0xdf, 0xfa, 0x3c, 0x5c, 0x1a, 0xd0, 0xba, 0xb5, 0x70, 0xdf, 0x3c,
  0xd3, 0xbf, 0x9e, 0x3d, 0xa3, 0xe2, 0x51, 0x3e, 0x81, 0xb7, 0x11, 0x3e,
  0xaf, 0x69, 0xc0, 0xbd, 0x6d, 0x4b, 0x5e, 0x3d, 0xe4, 0x46, 0x03, 0x3b,
  0x91, 0xe5, 0xb9, 0xbc, 0xb2, 0x61, 0x91, 0x3d, 0x1f, 0xcf, 0x45, 0xbd,
  0xfb, 0x2b, 0x0d, 0xbe, 0x6d, 0x64, 0x00, 0xbd, 0x25, 0x1c, 0x14, 0x3e,
  0x63, 0x0f, 0x59, 0x3d, 0x27, 0xef, 0x86, 0x3e, 0xfb, 0x5c, 0xed, 0x3c,
  0xd2, 0x6b, 0x05, 0x3d, 0x78, 0xa6, 0x44, 0xbe, 0xbc, 0x03, 0x9a, 0x3d,
  0x49, 0x04, 0x66, 0xbb, 0xc7, 0x17, 0xd9, 0xbd, 0x66, 0x85, 0xec, 0xbd,
  0xd9, 0xe1, 0x86, 0x3c, 0x24, 0x17, 0x27, 0xbe, 0xc6, 0xa4, 0xf6, 0x3d,
  0xc9, 0xaa, 0x02, 0x3e, 0x31, 0x88, 0x02, 0x3e, 0x8e, 0xce, 0x11, 0x3e,
  0x5f, 0x55, 0xa1, 0x3c, 0xd4, 0x5e, 0x61, 0xbd, 0xdd, 0x0a, 0xcf, 0x3d,
  0x7e, 0x09, 0xc5, 0xbd, 0xdf, 0x81, 0xc0, 0xbd, 0xdb, 0x3a, 0xbd, 0xbc,
  0x0b, 0x6c, 0x14, 0xbe, 0x44, 0xb8, 0xc8, 0x3c, 0x0b, 0xea, 0x28, 0x3e,
  0x20, 0xd2, 0xd4, 0x3d, 0xcc, 0xd2, 0xf4, 0xbd, 0xd5, 0xf3, 0xe6, 0x3d,
  0x9e, 0x46, 0xe0, 0x3c, 0x2c, 0x74, 0x9a, 0xbd, 0x25, 0x4f, 0xd6, 0x3d,
  0xca, 0x1b, 0x95, 0x3b, 0x5c, 0xf8, 0xdd, 0xbd, 0x6a, 0x4c, 0x1b, 0xbe,
  0xd7, 0x0e, 0x02, 0xbd, 0x2f, 0xaf, 0x4b, 0xbe, 0x75, 0x79, 0x16, 0x3e,
  0x2c, 0x57, 0x2f, 0x3e, 0xd0, 0x2e, 0x2a, 0xbe, 0x44, 0x58, 0x42, 0x3e,
  0x00, 0x44, 0x16, 0xbc, 0x99, 0x75, 0x97, 0x3d, 0x5a, 0x8d, 0xff, 0xbd,
  0x5e, 0xb8, 0x5a, 0x3d, 0x51, 0xe6, 0xe3, 0xbd, 0xe2, 0x7e, 0x9c, 0x3b,
  0xad, 0x36, 0x1e, 0xbd, 0xef, 0x54, 0x4a, 0x3e, 0xa3, 0x3d, 0xdd, 0x3a,
  0x51, 0xf6, 0x22, 0x3e, 0xdf, 0x85, 0xc2, 0xbd, 0x5f, 0xa4, 0x00, 0xbe,
  0x18, 0x3e, 0xab, 0x3b, 0xec, 0x1a, 0xa4, 0x3d, 0xc6, 0x29, 0xa6, 0x3d,
  0x5a, 0xff, 0xdb, 0x3d, 0x3d, 0x76, 0x02, 0xbe, 0xb8, 0xbd, 0xa7, 0x3c,
  0xe1, 0x3d, 0x30, 0xbe, 0x9f, 0x7e, 0x2b, 0xbc, 0x97, 0x97, 0xc7, 0x3d,
  0x3f, 0x6f, 0x49, 0xbc, 0x87, 0x67, 0x2e, 0xbe, 0x77, 0x7a, 0x31, 0x3e,
  0x6a, 0xa6, 0x15, 0x3d, 0x44, 0xe8, 0x4c, 0xbc, 0xeb, 0x39, 0x75, 0xbe,
  0x08, 0xbe, 0xde, 0x3d, 0xca, 0xeb, 0x4b, 0xbe, 0xec, 0x73, 0x8d, 0x3d,
  0x94, 0x75, 0x82, 0xbd, 0xc1, 0x61, 0xdb, 0x39, 0x86, 0xb7, 0x89, 0x3d,
  0x8f, 0x2c, 0x27, 0x3d, 0x2c, 0x89, 0x61, 0x3d, 0xe2, 0x2d, 0x07, 0x3d,
  0x42, 0x5b, 0xef, 0x3c, 0x88, 0xe9, 0x19, 0x3d, 0xc7, 0xc5, 0x42, 0x3e,
  0x38, 0x21, 0x82, 0xbd, 0x6d, 0x15, 0xcf, 0xbc, 0x6f, 0xaa, 0x80, 0xbd,
  0xfa, 0x67, 0x8a, 0x3d, 0x87, 0x9a, 0x1e, 0x3d, 0xa2, 0x82, 0x11, 0x3d,
  0xe1, 0x3f, 0x3b, 0x3d, 0xc6, 0xe1, 0xf9, 0x3d, 0x2e, 0x81, 0x88, 0x3d,
  0xa5, 0x94, 0xc9, 0x3d, 0x3f, 0x17, 0x04, 0x3e, 0xa9, 0xbc, 0x87, 0x3d,
  0x4c, 0xd7, 0x26, 0xbe, 0x48, 0xab, 0x74, 0x3d, 0x9e, 0x6a, 0x42, 0x3e,
  0x8a, 0x53, 0x37, 0x3d, 0x36, 0xba, 0x1f, 0xbd, 0x7b, 0xd9, 0xd7, 0xbd,
  0xb8, 0x22, 0x44, 0x3e, 0x68, 0xeb, 0xb5, 0x3c, 0x57, 0x1b, 0xd5, 0x3d,
  0x74, 0xb2, 0x76, 0x3e, 0x86, 0x68, 0x1a, 0xbc, 0x4c, 0x57, 0xff, 0xbc,
  0x86, 0x71, 0xa1, 0xbd, 0xaf, 0x97, 0x71, 0x3c, 0xff, 0x02, 0x32, 0x3e,
  0x3c, 0x89, 0xb2, 0xbc, 0x4e, 0xf1, 0xf4, 0xbd, 0xed, 0x46, 0xbc, 0x3d,
  0x2a, 0x9c, 0x19, 0xbe, 0x4f, 0x7f, 0xb7, 0xbc, 0xaa, 0x09, 0x26, 0xbe,
  0x0c, 0x03, 0x1d, 0x3d, 0x21, 0xe2, 0x30, 0xbc, 0x62, 0xa3, 0xd1, 0x3d,
  0xbf, 0x7d, 0x85, 0xbd, 0xe1, 0x53, 0xe2, 0x3d, 0x86, 0x07, 0x58, 0xbc,
  0x75, 0xca, 0x25, 0xbb, 0xee, 0x31, 0x64, 0x3e, 0xd5, 0x94, 0x3b, 0x3e,
  0xf3, 0x84, 0xcf, 0x3d, 0x00, 0x6e, 0xea, 0x3d, 0x6d, 0x94, 0xdb, 0xbd,
  0xa3, 0xba, 0xe1, 0xbc, 0x41, 0x5f, 0x54, 0xbe, 0xa2, 0xf1, 0x37, 0xbd,
  0x65, 0xa8, 0xad, 0xbd, 0x9e, 0xb1, 0x05, 0xbd, 0xe7, 0xa8, 0x26, 0x3d,
  0x39, 0x0b, 0x10, 0xbd, 0x90, 0xa8, 0x0c, 0xbe, 0xed, 0x32, 0x43, 0x3c,
  0xf9, 0x89, 0x0d, 0x3e, 0xa6, 0x4a, 0xe3, 0x3d, 0x1d, 0xcf, 0x94, 0xbe,
  0x8d, 0xa4, 0xc1, 0x3d, 0x98, 0x64, 0xe2, 0xbd, 0x99, 0x85, 0x86, 0x3d,
  0x08, 0xb1, 0x84, 0xbd, 0x5c, 0xd3, 0xaa, 0x3d, 0x61, 0xef, 0x30, 0x3e,
  0xd2, 0xfd, 0xe7, 0x3d, 0x71, 0x67, 0xc1, 0x3c, 0x94, 0x61, 0xa1, 0x3d,
  0x6e, 0x5c, 0x9f, 0xbd, 0x79, 0x72, 0x31, 0xbe, 0x06, 0xf7, 0x34, 0x3e,
  0x9c, 0x5a, 0x6e, 0x3d, 0x91, 0x73, 0x5f, 0xbe, 0x09, 0x39, 0x86, 0x3d,
  0x59, 0x01, 0x82, 0x3c, 0x3b, 0xda, 0x1f, 0xbd, 0xd9, 0x12, 0x3e, 0xbe,
  0x6f, 0x88, 0x18, 0x3e, 0x7a, 0xee, 0xd8, 0x3d, 0x5a, 0x42, 0x12, 0x3e,
  0xc9, 0x85, 0x7a, 0x3c, 0x0e, 0x19, 0x0e, 0x3e, 0x38, 0x94, 0xb2, 0xbd,
  0xc1, 0x50, 0xbf, 0xbd, 0x39, 0x5b, 0x4c, 0x3e, 0x23, 0xbc, 0x42, 0x3d,
  0x0f, 0x3c, 0xae, 0x3d, 0x0c, 0xf4, 0x4f, 0xbd, 0xcb, 0xa2, 0xaa, 0xbd,
  0x14, 0xdc, 0x46, 0x3e, 0x8e, 0x03, 0x3e, 0x3e, 0x21, 0xd1, 0x0a, 0x3e,
  0x2a, 0xd4, 0x00, 0x3e, 0x7a, 0x61, 0x57, 0x3d, 0x80, 0x96, 0x91, 0x3c,
  0x04, 0x43, 0xa5, 0x3c, 0xb3, 0xc1, 0x3f, 0xbe, 0x8c, 0x9f, 0x9e, 0xbd,
  0x53, 0xed, 0x86, 0x3d, 0x90, 0x99, 0x31, 0xbe, 0xe9, 0xe0, 0x06, 0x3d,
  0x75, 0x33, 0x31, 0x3d, 0xd4, 0xec, 0x42, 0x3e, 0xf0, 0x12, 0x8b, 0x3d,
  0x04, 0x4e, 0x81, 0xbd, 0x7c, 0x31, 0x77, 0x3d, 0x74, 0x1a, 0xa9, 0x3d,
  0x3d, 0xcd, 0x21, 0x3e, 0xad, 0x33, 0x10, 0xbe, 0x91, 0x90, 0x75, 0xbe,
  0x86, 0xc3, 0x48, 0x3c, 0x2c, 0x00, 0x2d, 0x3e, 0xbe, 0xf1, 0x8f, 0xbb,
  0xc5, 0x92, 0x2f, 0xbd, 0xb5, 0x3c, 0xe1, 0xbd, 0xdd, 0xc1, 0xd0, 0xbc,
  0x63, 0x62, 0x31, 0xbd, 0xd3, 0x56, 0xbc, 0xbd, 0x3f, 0x8c, 0xe6, 0x3d,
  0x51, 0xaa, 0x48, 0xbc, 0xd5, 0xc1, 0x67, 0xbc, 0xe1, 0x5b, 0xcb, 0x3c,
  0x74, 0xf3, 0xca, 0xbc, 0x7f, 0x1c, 0x4e, 0xbe, 0x8d, 0xc3, 0x78, 0x3d,
  0xf6, 0x23, 0x7f, 0xbe, 0xa8, 0x3d, 0xe9, 0xbd, 0x36, 0x78, 0xb1, 0xbd,
  0xc2, 0x83, 0x88, 0x3c, 0x3a, 0x5d, 0x49, 0xbc, 0x3b, 0x49, 0x2c, 0xbd,
  0xab, 0x7a, 0xeb, 0xbd, 0xd3, 0x6c, 0x38, 0xbd, 0x83, 0x29, 0xa5, 0xbd,
  0x75, 0x3b, 0x14, 0xbd, 0x7c, 0x16, 0x9c, 0xbb, 0xb6, 0xf0, 0xde, 0xbb,
  0x64, 0x25, 0xc8, 0xbd, 0x3c, 0x9f, 0x96, 0x3d, 0xda, 0xa6, 0x0a, 0xbe,
  0x97, 0xf6, 0x11, 0x3e, 0xa6, 0x23, 0x9d, 0xbd, 0x68, 0x42, 0xc2, 0x3c,
  0x02, 0xef, 0x29, 0xbd, 0x96, 0x90, 0x00, 0x3e, 0x24, 0xcc, 0x9f, 0x3d,
  0xe0, 0x6b, 0xe4, 0xbc, 0xa4, 0xac, 0x09, 0x3e, 0x9b, 0x2b, 0x1b, 0x3e,
  0x0c, 0xb6, 0x8b, 0xbe, 0xa4, 0x4b, 0x0b, 0x3d, 0x41, 0x59, 0xaf, 0x3d,
  0x65, 0x3b, 0xa3, 0xbd, 0xc0, 0x7e, 0x1f, 0x3d, 0xd7, 0x61, 0x1f, 0xbe,
  0xf0, 0x49, 0x16, 0x3e, 0xfe, 0xde, 0x03, 0xbd, 0x3d, 0x2b, 0xf3, 0xbc,
  0x8b, 0x25, 0xce, 0xbc, 0xe4, 0x2a, 0x01, 0x3e, 0x41, 0x95, 0xae, 0x3d,
  0xdf, 0xc8, 0x7c, 0xba, 0xdd, 0xe0, 0x8f, 0xbd, 0xf4, 0x06, 0xf9, 0x3d,
  0x6b, 0xd7, 0x93, 0x3d, 0x91, 0x5d, 0x0a, 0x3e, 0x50, 0xe3, 0x83, 0x3d,
  0xf3, 0x2e, 0x6e, 0x3e, 0x27, 0xdc, 0xbc, 0x3d, 0xdf, 0x1f, 0x60, 0x3d,
  0x42, 0x0d, 0x23, 0xbe, 0xbe, 0x4c, 0x22, 0x3d, 0x68, 0xad, 0xbe, 0x3d,
  0xd4, 0xe4, 0xd1, 0xbd, 0x30, 0x7f, 0x71, 0x3d, 0xa7, 0x30, 0x76, 0x3d,
  0xa2, 0x9c, 0x23, 0x3c, 0x6e, 0x6c, 0x72, 0xbd, 0xa6, 0x83, 0x23, 0x3c,
  0x33, 0x90, 0x4a, 0xbc, 0x8d, 0xb8, 0x7d, 0xbd, 0xf3, 0xcb, 0x89, 0x3b,
  0xd5, 0x1a, 0xdf, 0x3d, 0x55, 0x1f, 0xf8, 0xbd, 0x8a, 0x93, 0xd8, 0xbb,
  0x8c, 0x40, 0xc6, 0x3d, 0xa2, 0x1c, 0xfe, 0xbd, 0x01, 0x77, 0x8d, 0x3d,
  0xc3, 0x1b, 0xdd, 0x3d, 0x8a, 0xff, 0xff, 0xff, 0x04, 0x00, 0x00, 0x00,
  0x10, 0x00, 0x00, 0x00, 0x78, 0xfb, 0x67, 0x3d, 0x00, 0xe6, 0xb1, 0x3d,
  0xa0, 0x6b, 0x26, 0x3d, 0xa4, 0x4e, 0xb2, 0x3d, 0xa6, 0xff, 0xff, 0xff,
  0x04, 0x00, 0x00, 0x00, 0x20, 0x00, 0x00, 0x00, 0x1b, 0x1a, 0xf3, 0x3c,
  0xbc, 0xd7, 0x2b, 0x3d, 0xa4, 0x2a, 0x96, 0x3c, 0x07, 0x46, 0x0b, 0xbd,
  0x83, 0xfa, 0x29, 0xbb, 0xfd, 0x89, 0xb1, 0x3d, 0x42, 0x1e, 0x8c, 0x3d,
  0x1f, 0x1f, 0xc4, 0x3c, 0xd2, 0xff, 0xff, 0xff, 0x04, 0x00, 0x00, 0x00,
  0x20, 0x00, 0x00, 0x00, 0x47, 0x88, 0x40, 0x3d, 0xc5, 0xba, 0x0b, 0x3d,
  0x13, 0xcc, 0xa3, 0xbc, 0xb0, 0x6d, 0x3d, 0xbd, 0x72, 0xb8, 0x00, 0xbd,
  0x1f, 0x1c, 0x2d, 0x3d, 0xa2, 0x82, 0xfe, 0x3c, 0x06, 0x73, 0xf0, 0xbc,
  0x00, 0x00, 0x06, 0x00, 0x08, 0x00, 0x04, 0x00, 0x06, 0x00, 0x00, 0x00,
  0x04, 0x00, 0x00, 0x00, 0x40, 0x00, 0x00, 0x00, 0x7e, 0x98, 0xe8, 0xb9,
  0x65, 0x38, 0xd5, 0xbb, 0x19, 0xb6, 0x71, 0x3d, 0x8d, 0x36, 0x3b, 0x3d,
  0xaa, 0xd1, 0x0a, 0xbd, 0x58, 0xaf, 0xf0, 0x3c, 0x30, 0xf3, 0x1f, 0x3a,
  0x68, 0x8b, 0xfc, 0x3c, 0x53, 0xa9, 0x5a, 0x3d, 0xb7, 0xa1, 0xc2, 0x3c,
  0xce, 0x60, 0x76, 0xbd, 0xc8, 0x08, 0xef, 0xbb, 0xba, 0x10, 0xbc, 0x3c,
  0x4d, 0x13, 0x1c, 0xbd, 0x6a, 0x3a, 0xce, 0xbc, 0xff, 0xfe, 0xbf, 0xbc,
  0x44, 0xf3, 0xff, 0xff, 0x48, 0xf3, 0xff, 0xff, 0x0f, 0x00, 0x00, 0x00,
  0x4d, 0x4c, 0x49, 0x52, 0x20, 0x43, 0x6f, 0x6e, 0x76, 0x65, 0x72, 0x74,
  0x65, 0x64, 0x2e, 0x00, 0x01, 0x00, 0x00, 0x00, 0x14, 0x00, 0x00, 0x00,
  0x00, 0x00, 0x0e, 0x00, 0x18, 0x00, 0x14, 0x00, 0x10, 0x00, 0x0c, 0x00,
  0x08, 0x00, 0x04, 0x00, 0x0e, 0x00, 0x00, 0x00, 0x14, 0x00, 0x00, 0x00,
  0x1c, 0x00, 0x00, 0x00, 0xa0, 0x02, 0x00, 0x00, 0xa4, 0x02, 0x00, 0x00,
  0xa8, 0x02, 0x00, 0x00, 0x04, 0x00, 0x00, 0x00, 0x6d, 0x61, 0x69, 0x6e,
  0x00, 0x00, 0x00, 0x00, 0x09, 0x00, 0x00, 0x00, 0x38, 0x02, 0x00, 0x00,
  0xe4, 0x01, 0x00, 0x00, 0x90, 0x01, 0x00, 0x00, 0x3c, 0x01, 0x00, 0x00,
  0xf8, 0x00, 0x00, 0x00, 0xb4, 0x00, 0x00, 0x00, 0x70, 0x00, 0x00, 0x00,
  0x3c, 0x00, 0x00, 0x00, 0x04, 0x00, 0x00, 0x00, 0x9a, 0xfe, 0xff, 0xff,
  0x14, 0x00, 0x00, 0x00, 0x00, 0x00, 0x00, 0x08, 0x10, 0x00, 0x00, 0x00,
  0x14, 0x00, 0x00, 0x00, 0x03, 0x00, 0x00, 0x00, 0xdc, 0xf3, 0xff, 0xff,
  0x01, 0x00, 0x00, 0x00, 0x16, 0x00, 0x00, 0x00, 0x03, 0x00, 0x00, 0x00,
  0x15, 0x00, 0x00, 0x00, 0x09, 0x00, 0x00, 0x00, 0x0a, 0x00, 0x00, 0x00,
  0xce, 0xfe, 0xff, 0xff, 0x14, 0x00, 0x00, 0x00, 0x00, 0x00, 0x00, 0x1b,
  0x10, 0x00, 0x00, 0x00, 0x14, 0x00, 0x00, 0x00, 0x02, 0x00, 0x00, 0x00,
  0x10, 0xf4, 0xff, 0xff, 0x01, 0x00, 0x00, 0x00, 0x15, 0x00, 0x00, 0x00,
  0x02, 0x00, 0x00, 0x00, 0x14, 0x00, 0x00, 0x00, 0x0b, 0x00, 0x00, 0x00,
  0x5e, 0xfe, 0xff, 0xff, 0x10, 0x00, 0x00, 0x00, 0x00, 0x00, 0x00, 0x01,
  0x1c, 0x00, 0x00, 0x00, 0x20, 0x00, 0x00, 0x00, 0x50, 0xfe, 0xff, 0xff,
  0x00, 0x00, 0x00, 0x01, 0x01, 0x00, 0x00, 0x00, 0x01, 0x00, 0x00, 0x00,
  0x00, 0x00, 0x00, 0x01, 0x01, 0x00, 0x00, 0x00, 0x14, 0x00, 0x00, 0x00,
  0x03, 0x00, 0x00, 0x00, 0x13, 0x00, 0x00, 0x00, 0x05, 0x00, 0x00, 0x00,
  0x01, 0x00, 0x00, 0x00, 0x3e, 0xff, 0xff, 0xff, 0x14, 0x00, 0x00, 0x00,
  0x00, 0x00, 0x00, 0x05, 0x24, 0x00, 0x00, 0x00, 0x28, 0x00, 0x00, 0x00,
  0x01, 0x00, 0x00, 0x00, 0x2e, 0xff, 0xff, 0xff, 0x02, 0x00, 0x00, 0x00,
  0x02, 0x00, 0x00, 0x00, 0x02, 0x00, 0x00, 0x00, 0x02, 0x00, 0x00, 0x00,
  0x00, 0x00, 0x00, 0x01, 0x01, 0x00, 0x00, 0x00, 0x13, 0x00, 0x00, 0x00,
  0x01, 0x00, 0x00, 0x00, 0x12, 0x00, 0x00, 0x00, 0xde, 0xfe, 0xff, 0xff,
  0x10, 0x00, 0x00, 0x00, 0x00, 0x00, 0x00, 0x01, 0x1c, 0x00, 0x00, 0x00,
  0x20, 0x00, 0x00, 0x00, 0xd0, 0xfe, 0xff, 0xff, 0x00, 0x00, 0x00, 0x01,
  0x01, 0x00, 0x00, 0x00, 0x01, 0x00, 0x00, 0x00, 0x00, 0x00, 0x00, 0x01,
  0x01, 0x00, 0x00, 0x00, 0x12, 0x00, 0x00, 0x00, 0x03, 0x00, 0x00, 0x00,
  0x11, 0x00, 0x00, 0x00, 0x06, 0x00, 0x00, 0x00, 0x02, 0x00, 0x00, 0x00,
  0x1e, 0xff, 0xff, 0xff, 0x10, 0x00, 0x00, 0x00, 0x00, 0x00, 0x00, 0x01,
  0x1c, 0x00, 0x00, 0x00, 0x20, 0x00, 0x00, 0x00, 0x10, 0xff, 0xff, 0xff,
  0x00, 0x00, 0x00, 0x01, 0x01, 0x00, 0x00, 0x00, 0x01, 0x00, 0x00, 0x00,
  0x00, 0x00, 0x00, 0x01, 0x01, 0x00, 0x00, 0x00, 0x11, 0x00, 0x00, 0x00,
  0x03, 0x00, 0x00, 0x00, 0x10, 0x00, 0x00, 0x00, 0x07, 0x00, 0x00, 0x00,
  0x03, 0x00, 0x00, 0x00, 0x00, 0x00, 0x0e, 0x00, 0x1a, 0x00, 0x14, 0x00,
  0x10, 0x00, 0x0c, 0x00, 0x0b, 0x00, 0x04, 0x00, 0x0e, 0x00, 0x00, 0x00,
  0x24, 0x00, 0x00, 0x00, 0x00, 0x00, 0x00, 0x05, 0x34, 0x00, 0x00, 0x00,
  0x38, 0x00, 0x00, 0x00, 0x01, 0x00, 0x00, 0x00, 0x00, 0x00, 0x0e, 0x00,
  0x18, 0x00, 0x17, 0x00, 0x10, 0x00, 0x0c, 0x00, 0x08, 0x00, 0x04, 0x00,
  0x0e, 0x00, 0x00, 0x00, 0x02, 0x00, 0x00, 0x00, 0x02, 0x00, 0x00, 0x00,
  0x02, 0x00, 0x00, 0x00, 0x02, 0x00, 0x00, 0x00, 0x00, 0x00, 0x00, 0x01,
  0x01, 0x00, 0x00, 0x00, 0x10, 0x00, 0x00, 0x00, 0x01, 0x00, 0x00, 0x00,
  0x0f, 0x00, 0x00, 0x00, 0xbe, 0xff, 0xff, 0xff, 0x10, 0x00, 0x00, 0x00,
  0x00, 0x00, 0x00, 0x01, 0x1c, 0x00, 0x00, 0x00, 0x20, 0x00, 0x00, 0x00,
  0xb0, 0xff, 0xff, 0xff, 0x00, 0x00, 0x00, 0x01, 0x01, 0x00, 0x00, 0x00,
  0x01, 0x00, 0x00, 0x00, 0x00, 0x00, 0x00, 0x01, 0x01, 0x00, 0x00, 0x00,
  0x0f, 0x00, 0x00, 0x00, 0x03, 0x00, 0x00, 0x00, 0x0e, 0x00, 0x00, 0x00,
  0x08, 0x00, 0x00, 0x00, 0x04, 0x00, 0x00, 0x00, 0x00, 0x00, 0x0e, 0x00,
  0x14, 0x00, 0x00, 0x00, 0x10, 0x00, 0x0c, 0x00, 0x0b, 0x00, 0x04, 0x00,
  0x0e, 0x00, 0x00, 0x00, 0x1c, 0x00, 0x00, 0x00, 0x00, 0x00, 0x00, 0x01,
  0x28, 0x00, 0x00, 0x00, 0x2c, 0x00, 0x00, 0x00, 0x0c, 0x00, 0x14, 0x00,
  0x13, 0x00, 0x0c, 0x00, 0x08, 0x00, 0x07, 0x00, 0x0c, 0x00, 0x00, 0x00,
  0x00, 0x00, 0x00, 0x01, 0x01, 0x00, 0x00, 0x00, 0x01, 0x00, 0x00, 0x00,
  0x00, 0x00, 0x00, 0x01, 0x01, 0x00, 0x00, 0x00, 0x0e, 0x00, 0x00, 0x00,
  0x03, 0x00, 0x00, 0x00, 0x00, 0x00, 0x00, 0x00, 0x0c, 0x00, 0x00, 0x00,
  0x0d, 0x00, 0x00, 0x00, 0x01, 0x00, 0x00, 0x00, 0x16, 0x00, 0x00, 0x00,
  0x01, 0x00, 0x00, 0x00, 0x00, 0x00, 0x00, 0x00, 0x17, 0x00, 0x00, 0x00,
  0x98, 0x09, 0x00, 0x00, 0x44, 0x09, 0x00, 0x00, 0xf0, 0x08, 0x00, 0x00,
  0xb4, 0x08, 0x00, 0x00, 0x78, 0x08, 0x00, 0x00, 0x30, 0x08, 0x00, 0x00,
  0xe8, 0x07, 0x00, 0x00, 0xa0, 0x07, 0x00, 0x00, 0x58, 0x07, 0x00, 0x00,
  0x18, 0x07, 0x00, 0x00, 0xdc, 0x06, 0x00, 0x00, 0x6c, 0x06, 0x00, 0x00,
  0xf4, 0x05, 0x00, 0x00, 0x60, 0x05, 0x00, 0x00, 0xa4, 0x04, 0x00, 0x00,
  0xec, 0x03, 0x00, 0x00, 0x70, 0x03, 0x00, 0x00, 0xb8, 0x02, 0x00, 0x00,
  0x00, 0x02, 0x00, 0x00, 0x84, 0x01, 0x00, 0x00, 0xcc, 0x00, 0x00, 0x00,
  0x60, 0x00, 0x00, 0x00, 0x04, 0x00, 0x00, 0x00, 0xda, 0xf6, 0xff, 0xff,
  0x00, 0x00, 0x00, 0x01, 0x14, 0x00, 0x00, 0x00, 0x1c, 0x00, 0x00, 0x00,
  0x1c, 0x00, 0x00, 0x00, 0x17, 0x00, 0x00, 0x00, 0x34, 0x00, 0x00, 0x00,
  0x02, 0x00, 0x00, 0x00, 0xff, 0xff, 0xff, 0xff, 0x0a, 0x00, 0x00, 0x00,
  0xbc, 0xf6, 0xff, 0xff, 0x1b, 0x00, 0x00, 0x00, 0x53, 0x74, 0x61, 0x74,
  0x65, 0x66, 0x75, 0x6c, 0x50, 0x61, 0x72, 0x74, 0x69, 0x74, 0x69, 0x6f,
  0x6e, 0x65, 0x64, 0x43, 0x61, 0x6c, 0x6c, 0x5f, 0x31, 0x3a, 0x30, 0x00,
  0x02, 0x00, 0x00, 0x00, 0x01, 0x00, 0x00, 0x00, 0x0a, 0x00, 0x00, 0x00,
  0x32, 0xf7, 0xff, 0xff, 0x00, 0x00, 0x00, 0x01, 0x14, 0x00, 0x00, 0x00,
  0x1c, 0x00, 0x00, 0x00, 0x1c, 0x00, 0x00, 0x00, 0x16, 0x00, 0x00, 0x00,
  0x44, 0x00, 0x00, 0x00, 0x02, 0x00, 0x00, 0x00, 0xff, 0xff, 0xff, 0xff,
  0x10, 0x00, 0x00, 0x00, 0x14, 0xf7, 0xff, 0xff, 0x2b, 0x00, 0x00, 0x00,
  0x73, 0x65, 0x71, 0x75, 0x65, 0x6e, 0x74, 0x69, 0x61, 0x6c, 0x5f, 0x31,
  0x5f, 0x31, 0x2f, 0x67, 0x6c, 0x6f, 0x62, 0x61, 0x6c, 0x5f, 0x6d, 0x61,
  0x78, 0x5f, 0x70, 0x6f, 0x6f, 0x6c, 0x69, 0x6e, 0x67, 0x32, 0x64, 0x5f,
  0x31, 0x5f, 0x31, 0x2f, 0x4d, 0x61, 0x78, 0x00, 0x02, 0x00, 0x00, 0x00,
  0x01, 0x00, 0x00, 0x00, 0x10, 0x00, 0x00, 0x00, 0x9a, 0xf7, 0xff, 0xff,
  0x00, 0x00, 0x00, 0x01, 0x14, 0x00, 0x00, 0x00, 0x24, 0x00, 0x00, 0x00,
  0x24, 0x00, 0x00, 0x00, 0x15, 0x00, 0x00, 0x00, 0x88, 0x00, 0x00, 0x00,
  0x04, 0x00, 0x00, 0x00, 0xff, 0xff, 0xff, 0xff, 0x02, 0x00, 0x00, 0x00,
  0x02, 0x00, 0x00, 0x00, 0x10, 0x00, 0x00, 0x00, 0x84, 0xf7, 0xff, 0xff,
  0x67, 0x00, 0x00, 0x00, 0x73, 0x65, 0x71, 0x75, 0x65, 0x6e, 0x74, 0x69,
  0x61, 0x6c, 0x5f, 0x31, 0x5f, 0x31, 0x2f, 0x63, 0x6f, 0x6e, 0x76, 0x32,
  0x64, 0x5f, 0x39, 0x5f, 0x31, 0x2f, 0x52, 0x65, 0x6c, 0x75, 0x3b, 0x73,
  0x65, 0x71, 0x75, 0x65, 0x6e, 0x74, 0x69, 0x61, 0x6c, 0x5f, 0x31, 0x5f,
  0x31, 0x2f, 0x63, 0x6f, 0x6e, 0x76, 0x32, 0x64, 0x5f, 0x39, 0x5f, 0x31,
  0x2f, 0x42, 0x69, 0x61, 0x73, 0x41, 0x64, 0x64, 0x3b, 0x73, 0x65, 0x71,
  0x75, 0x65, 0x6e, 0x74, 0x69, 0x61, 0x6c, 0x5f, 0x31, 0x5f, 0x31, 0x2f,
  0x63, 0x6f, 0x6e, 0x76, 0x32, 0x64, 0x5f, 0x39, 0x5f, 0x31, 0x2f, 0x63,
  0x6f, 0x6e, 0x76, 0x6f, 0x6c, 0x75, 0x74, 0x69, 0x6f, 0x6e, 0x3b, 0x00,
  0x04, 0x00, 0x00, 0x00, 0x01, 0x00, 0x00, 0x00, 0x02, 0x00, 0x00, 0x00,
  0x02, 0x00, 0x00, 0x00, 0x10, 0x00, 0x00, 0x00, 0x4e, 0xf8, 0xff, 0xff,
  0x00, 0x00, 0x00, 0x01, 0x14, 0x00, 0x00, 0x00, 0x24, 0x00, 0x00, 0x00,
  0x24, 0x00, 0x00, 0x00, 0x14, 0x00, 0x00, 0x00, 0x4c, 0x00, 0x00, 0x00,
  0x04, 0x00, 0x00, 0x00, 0xff, 0xff, 0xff, 0xff, 0x04, 0x00, 0x00, 0x00,
  0x04, 0x00, 0x00, 0x00, 0x08, 0x00, 0x00, 0x00, 0x38, 0xf8, 0xff, 0xff,
  0x2a, 0x00, 0x00, 0x00, 0x73, 0x65, 0x71, 0x75, 0x65, 0x6e, 0x74, 0x69,
  0x61, 0x6c, 0x5f, 0x31, 0x5f, 0x31, 0x2f, 0x6d, 0x61, 0x78, 0x5f, 0x70,
  0x6f, 0x6f, 0x6c, 0x69, 0x6e, 0x67, 0x32, 0x64, 0x5f, 0x33, 0x5f, 0x31,
  0x2f, 0x4d, 0x61, 0x78, 0x50, 0x6f, 0x6f, 0x6c, 0x32, 0x64, 0x00, 0x00,
  0x04, 0x00, 0x00, 0x00, 0x01, 0x00, 0x00, 0x00, 0x04, 0x00, 0x00, 0x00,
  0x04, 0x00, 0x00, 0x00, 0x08, 0x00, 0x00, 0x00, 0xc6, 0xf8, 0xff, 0xff,
  0x00, 0x00, 0x00, 0x01, 0x14, 0x00, 0x00, 0x00, 0x24, 0x00, 0x00, 0x00,
  0x24, 0x00, 0x00, 0x00, 0x13, 0x00, 0x00, 0x00, 0x88, 0x00, 0x00, 0x00,
  0x04, 0x00, 0x00, 0x00, 0xff, 0xff, 0xff, 0xff, 0x08, 0x00, 0x00, 0x00,
  0x08, 0x00, 0x00, 0x00, 0x08, 0x00, 0x00, 0x00, 0xb0, 0xf8, 0xff, 0xff,
  0x67, 0x00, 0x00, 0x00, 0x73, 0x65, 0x71, 0x75, 0x65, 0x6e, 0x74, 0x69,
  0x61, 0x6c, 0x5f, 0x31, 0x5f, 0x31, 0x2f, 0x63, 0x6f, 0x6e, 0x76, 0x32,
  0x64, 0x5f, 0x38, 0x5f, 0x31, 0x2f, 0x52, 0x65, 0x6c, 0x75, 0x3b, 0x73,
  0x65, 0x71, 0x75, 0x65, 0x6e, 0x74, 0x69, 0x61, 0x6c, 0x5f, 0x31, 0x5f,
  0x31, 0x2f, 0x63, 0x6f, 0x6e, 0x76, 0x32, 0x64, 0x5f, 0x38, 0x5f, 0x31,
  0x2f, 0x42, 0x69, 0x61, 0x73, 0x41, 0x64, 0x64, 0x3b, 0x73, 0x65, 0x71,
  0x75, 0x65, 0x6e, 0x74, 0x69, 0x61, 0x6c, 0x5f, 0x31, 0x5f, 0x31, 0x2f,
  0x63, 0x6f, 0x6e, 0x76, 0x32, 0x64, 0x5f, 0x38, 0x5f, 0x31, 0x2f, 0x63,
  0x6f, 0x6e, 0x76, 0x6f, 0x6c, 0x75, 0x74, 0x69, 0x6f, 0x6e, 0x3b, 0x00,
  0x04, 0x00, 0x00, 0x00, 0x01, 0x00, 0x00, 0x00, 0x08, 0x00, 0x00, 0x00,
  0x08, 0x00, 0x00, 0x00, 0x08, 0x00, 0x00, 0x00, 0x7a, 0xf9, 0xff, 0xff,
  0x00, 0x00, 0x00, 0x01, 0x14, 0x00, 0x00, 0x00, 0x24, 0x00, 0x00, 0x00,
  0x24, 0x00, 0x00, 0x00, 0x12, 0x00, 0x00, 0x00, 0x88, 0x00, 0x00, 0x00,
  0x04, 0x00, 0x00, 0x00, 0xff, 0xff, 0xff, 0xff, 0x0a, 0x00, 0x00, 0x00,
  0x0a, 0x00, 0x00, 0x00, 0x08, 0x00, 0x00, 0x00, 0x64, 0xf9, 0xff, 0xff,
  0x67, 0x00, 0x00, 0x00, 0x73, 0x65, 0x71, 0x75, 0x65, 0x6e, 0x74, 0x69,
  0x61, 0x6c, 0x5f, 0x31, 0x5f, 0x31, 0x2f, 0x63, 0x6f, 0x6e, 0x76, 0x32,
  0x64, 0x5f, 0x37, 0x5f, 0x31, 0x2f, 0x52, 0x65, 0x6c, 0x75, 0x3b, 0x73,
  0x65, 0x71, 0x75, 0x65, 0x6e, 0x74, 0x69, 0x61, 0x6c, 0x5f, 0x31, 0x5f,
  0x31, 0x2f, 0x63, 0x6f, 0x6e, 0x76, 0x32, 0x64, 0x5f, 0x37, 0x5f, 0x31,
  0x2f, 0x42, 0x69, 0x61, 0x73, 0x41, 0x64, 0x64, 0x3b, 0x73, 0x65, 0x71,
  0x75, 0x65, 0x6e, 0x74, 0x69, 0x61, 0x6c, 0x5f, 0x31, 0x5f, 0x31, 0x2f,
  0x63, 0x6f, 0x6e, 0x76, 0x32, 0x64, 0x5f, 0x37, 0x5f, 0x31, 0x2f, 0x63,
  0x6f, 0x6e, 0x76, 0x6f, 0x6c, 0x75, 0x74, 0x69, 0x6f, 0x6e, 0x3b, 0x00,
  0x04, 0x00, 0x00, 0x00, 0x01, 0x00, 0x00, 0x00, 0x0a, 0x00, 0x00, 0x00,
  0x0a, 0x00, 0x00, 0x00, 0x08, 0x00, 0x00, 0x00, 0x2e, 0xfa, 0xff, 0xff,
  0x00, 0x00, 0x00, 0x01, 0x14, 0x00, 0x00, 0x00, 0x24, 0x00, 0x00, 0x00,
  0x24, 0x00, 0x00, 0x00, 0x11, 0x00, 0x00, 0x00, 0x4c, 0x00, 0x00, 0x00,
  0x04, 0x00, 0x00, 0x00, 0xff, 0xff, 0xff, 0xff, 0x0c, 0x00, 0x00, 0x00,
  0x0c, 0x00, 0x00, 0x00, 0x04, 0x00, 0x00, 0x00, 0x18, 0xfa, 0xff, 0xff,
  0x2a, 0x00, 0x00, 0x00, 0x73, 0x65, 0x71, 0x75, 0x65, 0x6e, 0x74, 0x69,
  0x61, 0x6c, 0x5f, 0x31, 0x5f, 0x31, 0x2f, 0x6d, 0x61, 0x78, 0x5f, 0x70,
  0x6f, 0x6f, 0x6c, 0x69, 0x6e, 0x67, 0x32, 0x64, 0x5f, 0x32, 0x5f, 0x31,
  0x2f, 0x4d, 0x61, 0x78, 0x50, 0x6f, 0x6f, 0x6c, 0x32, 0x64, 0x00, 0x00,
  0x04, 0x00, 0x00, 0x00, 0x01, 0x00, 0x00, 0x00, 0x0c, 0x00, 0x00, 0x00,
  0x0c, 0x00, 0x00, 0x00, 0x04, 0x00, 0x00, 0x00, 0xa6, 0xfa, 0xff, 0xff,
  0x00, 0x00, 0x00, 0x01, 0x14, 0x00, 0x00, 0x00, 0x24, 0x00, 0x00, 0x00,
  0x24, 0x00, 0x00, 0x00, 0x10, 0x00, 0x00, 0x00, 0x88, 0x00, 0x00, 0x00,
  0x04, 0x00, 0x00, 0x00, 0xff, 0xff, 0xff, 0xff, 0x18, 0x00, 0x00, 0x00,
  0x18, 0x00, 0x00, 0x00, 0x04, 0x00, 0x00, 0x00, 0x90, 0xfa, 0xff, 0xff,
  0x67, 0x00, 0x00, 0x00, 0x73, 0x65, 0x71, 0x75, 0x65, 0x6e, 0x74, 0x69,
  0x61, 0x6c, 0x5f, 0x31, 0x5f, 0x31, 0x2f, 0x63, 0x6f, 0x6e, 0x76, 0x32,
  0x64, 0x5f, 0x36, 0x5f, 0x31, 0x2f, 0x52, 0x65, 0x6c, 0x75, 0x3b, 0x73,
  0x65, 0x71, 0x75, 0x65, 0x6e, 0x74, 0x69, 0x61, 0x6c, 0x5f, 0x31, 0x5f,
  0x31, 0x2f, 0x63, 0x6f, 0x6e, 0x76, 0x32, 0x64, 0x5f, 0x36, 0x5f, 0x31,
  0x2f, 0x42, 0x69, 0x61, 0x73, 0x41, 0x64, 0x64, 0x3b, 0x73, 0x65, 0x71,
  0x75, 0x65, 0x6e, 0x74, 0x69, 0x61, 0x6c, 0x5f, 0x31, 0x5f, 0x31, 0x2f,
  0x63, 0x6f, 0x6e, 0x76, 0x32, 0x64, 0x5f, 0x36, 0x5f, 0x31, 0x2f, 0x63,
  0x6f, 0x6e, 0x76, 0x6f, 0x6c, 0x75, 0x74, 0x69, 0x6f, 0x6e, 0x3b, 0x00,
  0x04, 0x00, 0x00, 0x00, 0x01, 0x00, 0x00, 0x00, 0x18, 0x00, 0x00, 0x00,
  0x18, 0x00, 0x00, 0x00, 0x04, 0x00, 0x00, 0x00, 0x5a, 0xfb, 0xff, 0xff,
  0x00, 0x00, 0x00, 0x01, 0x14, 0x00, 0x00, 0x00, 0x24, 0x00, 0x00, 0x00,
  0x24, 0x00, 0x00, 0x00, 0x0f, 0x00, 0x00, 0x00, 0x8c, 0x00, 0x00, 0x00,
  0x04, 0x00, 0x00, 0x00, 0xff, 0xff, 0xff, 0xff, 0x1a, 0x00, 0x00, 0x00,
  0x1a, 0x00, 0x00, 0x00, 0x04, 0x00, 0x00, 0x00, 0x44, 0xfb, 0xff, 0xff,
  0x68, 0x00, 0x00, 0x00, 0x73, 0x65, 0x71, 0x75, 0x65, 0x6e, 0x74, 0x69,
  0x61, 0x6c, 0x5f, 0x31, 0x5f, 0x31, 0x2f, 0x63, 0x6f, 0x6e, 0x76, 0x32,
  0x64, 0x5f, 0x35, 0x5f, 0x31, 0x2f, 0x52, 0x65, 0x6c, 0x75, 0x3b, 0x73,
  0x65, 0x71, 0x75, 0x65, 0x6e, 0x74, 0x69, 0x61, 0x6c, 0x5f, 0x31, 0x5f,
  0x31, 0x2f, 0x63, 0x6f, 0x6e, 0x76, 0x32, 0x64, 0x5f, 0x35, 0x5f, 0x31,
  0x2f, 0x42, 0x69, 0x61, 0x73, 0x41, 0x64, 0x64, 0x3b, 0x73, 0x65, 0x71,
  0x75, 0x65, 0x6e, 0x74, 0x69, 0x61, 0x6c, 0x5f, 0x31, 0x5f, 0x31, 0x2f,
  0x63, 0x6f, 0x6e, 0x76, 0x32, 0x64, 0x5f, 0x35, 0x5f, 0x31, 0x2f, 0x63,
  0x6f, 0x6e, 0x76, 0x6f, 0x6c, 0x75, 0x74, 0x69, 0x6f, 0x6e, 0x3b, 0x31,
  0x00, 0x00, 0x00, 0x00, 0x04, 0x00, 0x00, 0x00, 0x01, 0x00, 0x00, 0x00,
  0x1a, 0x00, 0x00, 0x00, 0x1a, 0x00, 0x00, 0x00, 0x04, 0x00, 0x00, 0x00,
  0x62, 0xfc, 0xff, 0xff, 0x00, 0x00, 0x00, 0x01, 0x10, 0x00, 0x00, 0x00,
  0x10, 0x00, 0x00, 0x00, 0x0e, 0x00, 0x00, 0x00, 0x74, 0x00, 0x00, 0x00,
  0xe4, 0xfb, 0xff, 0xff, 0x67, 0x00, 0x00, 0x00, 0x73, 0x65, 0x71, 0x75,
  0x65, 0x6e, 0x74, 0x69, 0x61, 0x6c, 0x5f, 0x31, 0x5f, 0x31, 0x2f, 0x63,
  0x6f, 0x6e, 0x76, 0x32, 0x64, 0x5f, 0x35, 0x5f, 0x31, 0x2f, 0x52, 0x65,
  0x6c, 0x75, 0x3b, 0x73, 0x65, 0x71, 0x75, 0x65, 0x6e, 0x74, 0x69, 0x61,
  0x6c, 0x5f, 0x31, 0x5f, 0x31, 0x2f, 0x63, 0x6f, 0x6e, 0x76, 0x32, 0x64,
  0x5f, 0x35, 0x5f, 0x31, 0x2f, 0x42, 0x69, 0x61, 0x73, 0x41, 0x64, 0x64,
  0x3b, 0x73, 0x65, 0x71, 0x75, 0x65, 0x6e, 0x74, 0x69, 0x61, 0x6c, 0x5f,
  0x31, 0x5f, 0x31, 0x2f, 0x63, 0x6f, 0x6e, 0x76, 0x32, 0x64, 0x5f, 0x35,
  0x5f, 0x31, 0x2f, 0x63, 0x6f, 0x6e, 0x76, 0x6f, 0x6c, 0x75, 0x74, 0x69,
  0x6f, 0x6e, 0x3b, 0x00, 0x01, 0x00, 0x00, 0x00, 0x04, 0x00, 0x00, 0x00,
  0xf2, 0xfc, 0xff, 0xff, 0x00, 0x00, 0x00, 0x01, 0x10, 0x00, 0x00, 0x00,
  0x10, 0x00, 0x00, 0x00, 0x0d, 0x00, 0x00, 0x00, 0x34, 0x00, 0x00, 0x00,
  0x74, 0xfc, 0xff, 0xff, 0x25, 0x00, 0x00, 0x00, 0x73, 0x65, 0x71, 0x75,
  0x65, 0x6e, 0x74, 0x69, 0x61, 0x6c, 0x5f, 0x31, 0x5f, 0x31, 0x2f, 0x63,
  0x6f, 0x6e, 0x76, 0x32, 0x64, 0x5f, 0x35, 0x5f, 0x31, 0x2f, 0x63, 0x6f,
  0x6e, 0x76, 0x6f, 0x6c, 0x75, 0x74, 0x69, 0x6f, 0x6e, 0x00, 0x00, 0x00,
  0x04, 0x00, 0x00, 0x00, 0x04, 0x00, 0x00, 0x00, 0x03, 0x00, 0x00, 0x00,
  0x03, 0x00, 0x00, 0x00, 0x01, 0x00, 0x00, 0x00, 0x00, 0x00, 0x16, 0x00,
  0x1c, 0x00, 0x18, 0x00, 0x17, 0x00, 0x10, 0x00, 0x0c, 0x00, 0x08, 0x00,
  0x00, 0x00, 0x00, 0x00, 0x00, 0x00, 0x07, 0x00, 0x16, 0x00, 0x00, 0x00,
  0x00, 0x00, 0x00, 0x01, 0x14, 0x00, 0x00, 0x00, 0x14, 0x00, 0x00, 0x00,
  0x0c, 0x00, 0x00, 0x00, 0x00, 0x00, 0x00, 0x02, 0x4c, 0x00, 0x00, 0x00,
  0xec, 0xfc, 0xff, 0xff, 0x3d, 0x00, 0x00, 0x00, 0x73, 0x65, 0x71, 0x75,
  0x65, 0x6e, 0x74, 0x69, 0x61, 0x6c, 0x5f, 0x31, 0x5f, 0x31, 0x2f, 0x67,
  0x6c, 0x6f, 0x62, 0x61, 0x6c, 0x5f, 0x6d, 0x61, 0x78, 0x5f, 0x70, 0x6f,
  0x6f, 0x6c, 0x69, 0x6e, 0x67, 0x32, 0x64, 0x5f, 0x31, 0x5f, 0x31, 0x2f,
  0x4d, 0x61, 0x78, 0x2f, 0x72, 0x65, 0x64, 0x75, 0x63, 0x74, 0x69, 0x6f,
  0x6e, 0x5f, 0x69, 0x6e, 0x64, 0x69, 0x63, 0x65, 0x73, 0x00, 0x00, 0x00,
  0x01, 0x00, 0x00, 0x00, 0x02, 0x00, 0x00, 0x00, 0xd2, 0xfd, 0xff, 0xff,
  0x00, 0x00, 0x00, 0x01, 0x10, 0x00, 0x00, 0x00, 0x10, 0x00, 0x00, 0x00,
  0x0b, 0x00, 0x00, 0x00, 0x1c, 0x00, 0x00, 0x00, 0x54, 0xfd, 0xff, 0xff,
  0x0f, 0x00, 0x00, 0x00, 0x61, 0x72, 0x69, 0x74, 0x68, 0x2e, 0x63, 0x6f,
  0x6e, 0x73, 0x74, 0x61, 0x6e, 0x74, 0x39, 0x00, 0x01, 0x00, 0x00, 0x00,
  0x0a, 0x00, 0x00, 0x00, 0x0a, 0xfe, 0xff, 0xff, 0x00, 0x00, 0x00, 0x01,
  0x10, 0x00, 0x00, 0x00, 0x10, 0x00, 0x00, 0x00, 0x0a, 0x00, 0x00, 0x00,
  0x1c, 0x00, 0x00, 0x00, 0x8c, 0xfd, 0xff, 0xff, 0x0f, 0x00, 0x00, 0x00,
  0x61, 0x72, 0x69, 0x74, 0x68, 0x2e, 0x63, 0x6f, 0x6e, 0x73, 0x74, 0x61,
  0x6e, 0x74, 0x38, 0x00, 0x02, 0x00, 0x00, 0x00, 0x0a, 0x00, 0x00, 0x00,
  0x10, 0x00, 0x00, 0x00, 0x46, 0xfe, 0xff, 0xff, 0x00, 0x00, 0x00, 0x01,
  0x10, 0x00, 0x00, 0x00, 0x10, 0x00, 0x00, 0x00, 0x09, 0x00, 0x00, 0x00,
  0x1c, 0x00, 0x00, 0x00, 0xc8, 0xfd, 0xff, 0xff, 0x0f, 0x00, 0x00, 0x00,
  0x61, 0x72, 0x69, 0x74, 0x68, 0x2e, 0x63, 0x6f, 0x6e, 0x73, 0x74, 0x61,
  0x6e, 0x74, 0x37, 0x00, 0x04, 0x00, 0x00, 0x00, 0x04, 0x00, 0x00, 0x00,
  0x03, 0x00, 0x00, 0x00, 0x03, 0x00, 0x00, 0x00, 0x04, 0x00, 0x00, 0x00,
  0x8a, 0xfe, 0xff, 0xff, 0x00, 0x00, 0x00, 0x01, 0x10, 0x00, 0x00, 0x00,
  0x10, 0x00, 0x00, 0x00, 0x08, 0x00, 0x00, 0x00, 0x1c, 0x00, 0x00, 0x00,
  0x0c, 0xfe, 0xff, 0xff, 0x0f, 0x00, 0x00, 0x00, 0x61, 0x72, 0x69, 0x74,
  0x68, 0x2e, 0x63, 0x6f, 0x6e, 0x73, 0x74, 0x61, 0x6e, 0x74, 0x36, 0x00,
  0x04, 0x00, 0x00, 0x00, 0x08, 0x00, 0x00, 0x00, 0x03, 0x00, 0x00, 0x00,
  0x03, 0x00, 0x00, 0x00, 0x04, 0x00, 0x00, 0x00, 0xce, 0xfe, 0xff, 0xff,
  0x00, 0x00, 0x00, 0x01, 0x10, 0x00, 0x00, 0x00, 0x10, 0x00, 0x00, 0x00,
  0x07, 0x00, 0x00, 0x00, 0x1c, 0x00, 0x00, 0x00, 0x50, 0xfe, 0xff, 0xff,
  0x0f, 0x00, 0x00, 0x00, 0x61, 0x72, 0x69, 0x74, 0x68, 0x2e, 0x63, 0x6f,
  0x6e, 0x73, 0x74, 0x61, 0x6e, 0x74, 0x35, 0x00, 0x04, 0x00, 0x00, 0x00,
  0x08, 0x00, 0x00, 0x00, 0x03, 0x00, 0x00, 0x00, 0x03, 0x00, 0x00, 0x00,
  0x08, 0x00, 0x00, 0x00, 0x12, 0xff, 0xff, 0xff, 0x00, 0x00, 0x00, 0x01,
  0x10, 0x00, 0x00, 0x00, 0x10, 0x00, 0x00, 0x00, 0x06, 0x00, 0x00, 0x00,
  0x1c, 0x00, 0x00, 0x00, 0x94, 0xfe, 0xff, 0xff, 0x0f, 0x00, 0x00, 0x00,
  0x61, 0x72, 0x69, 0x74, 0x68, 0x2e, 0x63, 0x6f, 0x6e, 0x73, 0x74, 0x61,
  0x6e, 0x74, 0x34, 0x00, 0x04, 0x00, 0x00, 0x00, 0x10, 0x00, 0x00, 0x00,
  0x03, 0x00, 0x00, 0x00, 0x03, 0x00, 0x00, 0x00, 0x08, 0x00, 0x00, 0x00,
  0x56, 0xff, 0xff, 0xff, 0x00, 0x00, 0x00, 0x01, 0x10, 0x00, 0x00, 0x00,
  0x10, 0x00, 0x00, 0x00, 0x05, 0x00, 0x00, 0x00, 0x1c, 0x00, 0x00, 0x00,
  0xd8, 0xfe, 0xff, 0xff, 0x0f, 0x00, 0x00, 0x00, 0x61, 0x72, 0x69, 0x74,
  0x68, 0x2e, 0x63, 0x6f, 0x6e, 0x73, 0x74, 0x61, 0x6e, 0x74, 0x33, 0x00,
  0x01, 0x00, 0x00, 0x00, 0x04, 0x00, 0x00, 0x00, 0x8e, 0xff, 0xff, 0xff,
  0x00, 0x00, 0x00, 0x01, 0x10, 0x00, 0x00, 0x00, 0x10, 0x00, 0x00, 0x00,
  0x04, 0x00, 0x00, 0x00, 0x1c, 0x00, 0x00, 0x00, 0x10, 0xff, 0xff, 0xff,
  0x0f, 0x00, 0x00, 0x00, 0x61, 0x72, 0x69, 0x74, 0x68, 0x2e, 0x63, 0x6f,
  0x6e, 0x73, 0x74, 0x61, 0x6e, 0x74, 0x32, 0x00, 0x01, 0x00, 0x00, 0x00,
  0x08, 0x00, 0x00, 0x00, 0xc6, 0xff, 0xff, 0xff, 0x00, 0x00, 0x00, 0x01,
  0x10, 0x00, 0x00, 0x00, 0x10, 0x00, 0x00, 0x00, 0x03, 0x00, 0x00, 0x00,
  0x1c, 0x00, 0x00, 0x00, 0x48, 0xff, 0xff, 0xff, 0x0f, 0x00, 0x00, 0x00,
  0x61, 0x72, 0x69, 0x74, 0x68, 0x2e, 0x63, 0x6f, 0x6e, 0x73, 0x74, 0x61,
  0x6e, 0x74, 0x31, 0x00, 0x01, 0x00, 0x00, 0x00, 0x08, 0x00, 0x00, 0x00,
  0x00, 0x00, 0x16, 0x00, 0x18, 0x00, 0x14, 0x00, 0x00, 0x00, 0x10, 0x00,
  0x0c, 0x00, 0x08, 0x00, 0x00, 0x00, 0x00, 0x00, 0x00, 0x00, 0x07, 0x00,
  0x16, 0x00, 0x00, 0x00, 0x00, 0x00, 0x00, 0x01, 0x10, 0x00, 0x00, 0x00,
  0x10, 0x00, 0x00, 0x00, 0x02, 0x00, 0x00, 0x00, 0x1c, 0x00, 0x00, 0x00,
  0x98, 0xff, 0xff, 0xff, 0x0e, 0x00, 0x00, 0x00, 0x61, 0x72, 0x69, 0x74,
  0x68, 0x2e, 0x63, 0x6f, 0x6e, 0x73, 0x74, 0x61, 0x6e, 0x74, 0x00, 0x00,
  0x01, 0x00, 0x00, 0x00, 0x10, 0x00, 0x00, 0x00, 0x00, 0x00, 0x16, 0x00,
  0x1c, 0x00, 0x18, 0x00, 0x00, 0x00, 0x14, 0x00, 0x10, 0x00, 0x0c, 0x00,
  0x00, 0x00, 0x00, 0x00, 0x08, 0x00, 0x07, 0x00, 0x16, 0x00, 0x00, 0x00,
  0x00, 0x00, 0x00, 0x01, 0x14, 0x00, 0x00, 0x00, 0x28, 0x00, 0x00, 0x00,
  0x28, 0x00, 0x00, 0x00, 0x01, 0x00, 0x00, 0x00, 0x48, 0x00, 0x00, 0x00,
  0x04, 0x00, 0x00, 0x00, 0xff, 0xff, 0xff, 0xff, 0x1c, 0x00, 0x00, 0x00,
  0x1c, 0x00, 0x00, 0x00, 0x01, 0x00, 0x00, 0x00, 0x04, 0x00, 0x04, 0x00,
  0x04, 0x00, 0x00, 0x00, 0x21, 0x00, 0x00, 0x00, 0x73, 0x65, 0x72, 0x76,
  0x69, 0x6e, 0x67, 0x5f, 0x64, 0x65, 0x66, 0x61, 0x75, 0x6c, 0x74, 0x5f,
  0x6b, 0x65, 0x72, 0x61, 0x73, 0x5f, 0x74, 0x65, 0x6e, 0x73, 0x6f, 0x72,
  0x5f, 0x31, 0x30, 0x3a, 0x30, 0x00, 0x00, 0x00, 0x04, 0x00, 0x00, 0x00,
  0x01, 0x00, 0x00, 0x00, 0x1c, 0x00, 0x00, 0x00, 0x1c, 0x00, 0x00, 0x00,
  0x01, 0x00, 0x00, 0x00, 0x04, 0x00, 0x00, 0x00, 0x40, 0x00, 0x00, 0x00,
  0x24, 0x00, 0x00, 0x00, 0x14, 0x00, 0x00, 0x00, 0x04, 0x00, 0x00, 0x00,
  0xdc, 0xff, 0xff, 0xff, 0x09, 0x00, 0x00, 0x00, 0x00, 0x00, 0x00, 0x09,
  0xe8, 0xff, 0xff, 0xff, 0x52, 0x00, 0x00, 0x00, 0x00, 0x00, 0x00, 0x52,
  0xf4, 0xff, 0xff, 0xff, 0x11, 0x00, 0x00, 0x00, 0x00, 0x00, 0x00, 0x11,
  0x0c, 0x00, 0x0c, 0x00, 0x0b, 0x00, 0x00, 0x00, 0x00, 0x00, 0x04, 0x00,
  0x0c, 0x00, 0x00, 0x00, 0x03, 0x00, 0x00, 0x00, 0x00, 0x00, 0x00, 0x03
};
unsigned int model_tflite_len = 13764;
