0000000111111100
0001000011000000
0010000101111101
0011000111111001
0000000000000101
0000001111110100
0000010010001010
0000011100101111
0001000000111111
0001001101000000
0001010101111111
0001011101111101
0010000010011011
0010001100110001
0010010101111111
0010011001111111
0011000100010111
0011001110011001
0011010000010111
0011011011000100
0000000000110000
0000001000101111
0000010100110111
0000011010010000
0001000001111100
0001001000111010
0001010000000100
0001011100100001
0010000111111011
0010001100101100
0010010001101101
0010011110110111
0011000111010111
0011001011000000
0011010110100000
0011011010010001
0100000011011010
0100001111011100
0100010111101011
0100011001001000
0101000000100110
0101001001011000
0101010000011111
0101011111111100
0110000000000001
0110001110101001
0110010110100001
0110011110111111
0111000110110011
0111001000000111
0111010000111111
0111011101011111
0000000011110101
0000001111110000
0000010111111100
0000011110110111
0000100101111000
0000101100100110
0000110110000011
0000111001101111
0001000110110110
0001001100000011
0001010010010001
0001011010010101
0001100111111110
0001101000000000
0001110000101111
0001111110110110
0010000110111111
0010001000000010
0010010111011000
0010011000111000
0010100111111011
0010101011011001
0010110001000110
0010111101111111
0011000001000110
0011001000000111
0011010001100111
0011011000111000
0011100110111011
0011101111111110
0011110010010010
0011111101001111
0100000111111111
0100001010001010
0100010100000000
0100011000100111
0100100111110010
0100101100110111
0100110101111110
0100111010010111
0101000000100111
0101001011010110
0101010011110110
0101011101001000
0101100110111000
0101101000001010
0101110010010111
0101111111111111
0110000110000110
0110001111000000
0110010111111111
0110011000000111
0110100111111100
0110101110100111
0110110101100111
0110111000000010
0111000111001100
0111001011011111
0111010001011110
0111011111111100
0111100101110110
0111101000000001
0111110000100001
0111111100101010
0000000010100100
0000001101011011
0000010110011011
0000011111001000
0000100110111001
0000101111000000
0000110001000011
0000111011110111
0001000111111000
0001001010000100
0001010001111111
0001011111010010
0001100110000100
0001101000111111
0001110000000011
0001111010111000
0010000100010000
0010001011011111
0010010001010111
0010011111001001
0010100011001111
0010101000100100
0010110011011001
0010111001111101
0011000001000111
0011001000100110
0011010000110000
0011011001011001
0011100001000100
0011101101011011
0011110011100011
0011111111000111
0100000011111101
0100001001110000
0100010100100000
0100011000000111
0100100100110000
0100101111001000
0100110001011000
0100111011000100
0101000111011001
0101001101110011
0101010001101011
0101011101101101
0101100111001001
0101101110011001
0101110111110111
0101111110111101
0110000011111001
0110001001100000
0110010000111000
0110011000011111
0110100100100000
0110101001101110
0110110001100110
0110111111010111
0111000111100111
0111001000110111
0111010001101101
0111011110000111
0111100011111111
0111101011000100
0111110001000111
0111111110110111
1000000001001001
1000001111001001
1000010111000001
1000011010110100
1000100101101001
1000101100101101
1000110101000000
1000111100011011
1001000100110101
1001001100001000
1001010101000000
1001011001010110
1001100111111000
1001101000000001
1001110011111001
1001111000000111
1010000110100111
1010001000101101
1010010111101100
1010011001001111
1010100011111111
1010101001000101
1010110000000101
1010111110110111
1011000011110100
1011001000011000
1011010001011000
1011011100110110
1011100011011000
1011101100000000
1011110100100111
1011111000001111
1100000110111010
1100001000001001
1100010000111000
1100011100111110
1100100011001000
1100101000101111
1100110100001101
1100111100110001
1101000011110111
1101001000001000
1101010110110111
1101011110110011
1101100000010001
1101101101101101
1101110111101100
1101111001000001
1110000011110110
1110001001010110
1110010000000010
1110011100110001
1110100110010000
1110101100000111
1110110111110100
1110111001110110
1111000000010000
1111001111111010
1111010110110111
1111011000000000
1111100110111000
1111101101110101
1111110000000000
1111111011001000
0000000001011001
0000111100000111
0001000001010101
0001000101110110
0010000001101011
0010111011110001
0011000001100010
0011111100001000
0000000000111101
0000111110011011
0001000000100101
0001000100110111
0010000000101001
0010000100011001
0011000000111101
0011111101001000
0000000000111100
0000111111110010
0001000000111000
0001111100010111
0010000000101011
0010000001101111
0011000000100000
0011111101101110
0100000000101100
0100000100010100
0101000000110000
0101111100010011
0110000000100000
0110111111011011
0111000000101011
0111000001011110
0000000000101100
0000000100100111
0001000000100010
0001000010001000
0010000000110000
0010000010111011
0011000000100100
0011111111011110
0100000000100100
0100000011110010
0101000000101000
0101000001100000
0110000000100010
0110111111101110
0111000000101011
0111000010010001
0000000000101101
0000000000111111
0001000000101101
0001111111111000
0010000000100100
0010000001111010
0011000000101111
0011111100011101
0100000000100111
0100111010011011
0101000000100000
0101000110101111
0110000000101110
0110111110100100
0111000000101011
0111000100000101
1000000000101110
1000111101000101
1001000000101010
1001111011010001
1010000000101110
1010000100001100
1011000000110010
1011111100001111
1100000000101111
1100000000101110
1101000000110101
1101000000010110
1110000000101101
1110111101011100
1111000000110010
1111111001000001
0000111101011010
0000000000110100
0000111110101010
0000111101001111
0000000010010101
0000000000101101
0000111111010111
0000000001010101
0000000000101111
0000111100111101
0000000010101001
0000000000011111
0000111110010111
0000000001111000
0000000010010011
0000111100100000
0001000000010000
0001111110010001
0001000001100000
0001000000010010
0001111101000000
0001000000100101
0001111111011001
0001111111111001
0001111100110010
0001111111100001
0001000001101111
0001111111111101
0001000010011010
0001000011110001
0001111100010001
0001111110010111
0010111101110001
0010000001110011
0010000011001100
0010111101101101
0010000010111100
0010111111110010
0010000001011001
0010000001111111
0010111111101000
0010000001100001
0010111111100111
0010111110100010
0010111101000001
0010111110011100
0010111111011011
0010111111010110
0011111110011011
0011111101101100
0011111111110010
0011000011001111
0011000001000110
0011111111011111
0011111111111110
0011000001100111
0011111101111101
0011000000001010
0011000001010010
0011111110100000
0011111110000101
0011111101111101
0011111111111111
0011000010010110
0100111101110101
0100000011100010
0100000000101101
0100000000001010
0100111110011100
0100000001101101
0100111101101110
0100111101001010
0100111100111001
0100000010000010
0100111111101100
0100111101110100
0100000001110010
0100000000101100
0100000010100000
0100111111101100
0101000011000101
0101111111100001
0101111111010101
0101000000010101
0101111111110000
0101111100110110
0101111100001011
0101000000001011
0101000000111010
0101111111001111
0101000001100011
0101000001010011
0101000000110011
0101111110001100
0101111111001001
0101000001010111
0110111111100100
0110111111010011
0110111111110100
0110111110110011
0110111111010011
0110111111101101
0110111101000110
0110000001001011
0110111101101011
0110000011110010
0110000010010110
0110000011001101
0110111110110011
0110111111111000
0110000000101001
0110111100010111
0111111111000011
0111000001011000
0111111110111001
0111111110110001
0111000001010110
0111000001011010
0111000010110000
0111111110000000
0111111111111100
0111000001001101
0111111101001011
0111111110111010
0111111110111110
0111000010001111
0111111100101101
0111000001101110
1000111101111110
1000111101011010
1000000001011100
1000111111111001
1000111110101000
1000111110110110
1000000010100000
1000000000110011
1000000001001101
1000111111001111
1000000000010001
1000000000111110
1000000000111011
1000111101110001
1000000001010000
1000111110011101
1001111111111101
1001000000111110
1001111101010000
1001000001101001
1001000000010111
1001000001100110
1001111111001001
1001111101010101
1001000010101110
1001111111011110
1001111101100101
1001111101101000
1001111111100010
1001000001000110
1001000010101010
1001111111010010
0000111111010001
0001000001101111
0010111111101110
0011111111111100
0100000000000110
0101111111010110
0110111111101001
0111000000001000
1000111111101110
1001111111100111